<unk>	0
<s>	0
</s>	0
<pad>	0
<|im_start|>	0
<|im_end|>	0
<tool_call>	0
</tool_call>	0
<tool_response>	0
</tool_response>	0
<0x00>	0
<0x01>	0
<0x02>	0
<0x03>	0
<0x04>	0
<0x05>	0
<0x06>	0
<0x07>	0
<0x08>	0
<0x09>	0
<0x0A>	0
<0x0B>	0
<0x0C>	0
<0x0D>	0
<0x0E>	0
<0x0F>	0
<0x10>	0
<0x11>	0
<0x12>	0
<0x13>	0
<0x14>	0
<0x15>	0
<0x16>	0
<0x17>	0
<0x18>	0
<0x19>	0
<0x1A>	0
<0x1B>	0
<0x1C>	0
<0x1D>	0
<0x1E>	0
<0x1F>	0
<0x20>	0
<0x21>	0
<0x22>	0
<0x23>	0
<0x24>	0
<0x25>	0
<0x26>	0
<0x27>	0
<0x28>	0
<0x29>	0
<0x2A>	0
<0x2B>	0
<0x2C>	0
<0x2D>	0
<0x2E>	0
<0x2F>	0
<0x30>	0
<0x31>	0
<0x32>	0
<0x33>	0
<0x34>	0
<0x35>	0
<0x36>	0
<0x37>	0
<0x38>	0
<0x39>	0
<0x3A>	0
<0x3B>	0
<0x3C>	0
<0x3D>	0
<0x3E>	0
<0x3F>	0
<0x40>	0
<0x41>	0
<0x42>	0
<0x43>	0
<0x44>	0
<0x45>	0
<0x46>	0
<0x47>	0
<0x48>	0
<0x49>	0
<0x4A>	0
<0x4B>	0
<0x4C>	0
<0x4D>	0
<0x4E>	0
<0x4F>	0
<0x50>	0
<0x51>	0
<0x52>	0
<0x53>	0
<0x54>	0
<0x55>	0
<0x56>	0
<0x57>	0
<0x58>	0
<0x59>	0
<0x5A>	0
<0x5B>	0
<0x5C>	0
<0x5D>	0
<0x5E>	0
<0x5F>	0
<0x60>	0
<0x61>	0
<0x62>	0
<0x63>	0
<0x64>	0
<0x65>	0
<0x66>	0
<0x67>	0
<0x68>	0
<0x69>	0
<0x6A>	0
<0x6B>	0
<0x6C>	0
<0x6D>	0
<0x6E>	0
<0x6F>	0
<0x70>	0
<0x71>	0
<0x72>	0
<0x73>	0
<0x74>	0
<0x75>	0
<0x76>	0
<0x77>	0
<0x78>	0
<0x79>	0
<0x7A>	0
<0x7B>	0
<0x7C>	0
<0x7D>	0
<0x7E>	0
<0x7F>	0
<0x80>	0
<0x81>	0
<0x82>	0
<0x83>	0
<0x84>	0
<0x85>	0
<0x86>	0
<0x87>	0
<0x88>	0
<0x89>	0
<0x8A>	0
<0x8B>	0
<0x8C>	0
<0x8D>	0
<0x8E>	0
<0x8F>	0
<0x90>	0
<0x91>	0
<0x92>	0
<0x93>	0
<0x94>	0
<0x95>	0
<0x96>	0
<0x97>	0
<0x98>	0
<0x99>	0
<0x9A>	0
<0x9B>	0
<0x9C>	0
<0x9D>	0
<0x9E>	0
<0x9F>	0
<0xA0>	0
<0xA1>	0
<0xA2>	0
<0xA3>	0
<0xA4>	0
<0xA5>	0
<0xA6>	0
<0xA7>	0
<0xA8>	0
<0xA9>	0
<0xAA>	0
<0xAB>	0
<0xAC>	0
<0xAD>	0
<0xAE>	0
<0xAF>	0
<0xB0>	0
<0xB1>	0
<0xB2>	0
<0xB3>	0
<0xB4>	0
<0xB5>	0
<0xB6>	0
<0xB7>	0
<0xB8>	0
<0xB9>	0
<0xBA>	0
<0xBB>	0
<0xBC>	0
<0xBD>	0
<0xBE>	0
<0xBF>	0
<0xC0>	0
<0xC1>	0
<0xC2>	0
<0xC3>	0
<0xC4>	0
<0xC5>	0
<0xC6>	0
<0xC7>	0
<0xC8>	0
<0xC9>	0
<0xCA>	0
<0xCB>	0
<0xCC>	0
<0xCD>	0
<0xCE>	0
<0xCF>	0
<0xD0>	0
<0xD1>	0
<0xD2>	0
<0xD3>	0
<0xD4>	0
<0xD5>	0
<0xD6>	0
<0xD7>	0
<0xD8>	0
<0xD9>	0
<0xDA>	0
<0xDB>	0
<0xDC>	0
<0xDD>	0
<0xDE>	0
<0xDF>	0
<0xE0>	0
<0xE1>	0
<0xE2>	0
<0xE3>	0
<0xE4>	0
<0xE5>	0
<0xE6>	0
<0xE7>	0
<0xE8>	0
<0xE9>	0
<0xEA>	0
<0xEB>	0
<0xEC>	0
<0xED>	0
<0xEE>	0
<0xEF>	0
<0xF0>	0
<0xF1>	0
<0xF2>	0
<0xF3>	0
<0xF4>	0
<0xF5>	0
<0xF6>	0
<0xF7>	0
<0xF8>	0
<0xF9>	0
<0xFA>	0
<0xFB>	0
<0xFC>	0
<0xFD>	0
<0xFE>	0
<0xFF>	0
.	-3.22394
▁	-3.22907
,	-3.45974
1	-3.82351
'	-3.8797
▁ve	-4.12491
0	-4.13441
9	-4.27141
2	-4.36736
▁bir	-4.73022
▁(	-4.73715
)	-4.84766
8	-5.02277
-	-5.12532
5	-5.13098
3	-5.14105
7	-5.21522
6	-5.2315
4	-5.23648
a	-5.44084
da	-5.48797
de	-5.52696
e	-5.54708
i	-5.56905
▁olarak	-5.57301
in	-5.59481
▁-	-5.60125
:	-5.64189
▁ile	-5.65714
n	-5.72845
nin	-5.76746
nın	-5.78129
lar	-5.78365
’	-5.83133
ler	-5.84206
▁bu	-5.90491
"	-5.94861
▁için	-5.99577
▁"	-5.99822
▁da	-6.01514
▁olan	-6.03462
▁de	-6.09528
ın	-6.09534
▁Bu	-6.14259
d	-6.1798
s	-6.1811
na	-6.21998
ya	-6.24381
ne	-6.27745
te	-6.34754
k	-6.40531
▁sonra	-6.40589
▁yılında	-6.42658
ları	-6.42767
▁tarafından	-6.44699
ı	-6.46398
▁en	-6.48471
leri	-6.48533
den	-6.55387
▁daha	-6.56498
dan	-6.57858
;	-6.61106
un	-6.61878
ye	-6.62284
li	-6.63345
dir	-6.64965
ni	-6.65486
▁ilk	-6.6551
▁Türk	-6.67062
▁||	-6.67351
▁gibi	-6.69723
▁çok	-6.70865
 	-6.71801
u	-6.72738
la	-6.72823
▁ise	-6.73956
si	-6.74058
nde	-6.75855
ta	-6.77834
nda	-6.79749
le	-6.80598
t	-6.84245
lı	-6.85249
dır	-6.87345
▁büyük	-6.87768
▁kadar	-6.91271
),	-6.91442
m	-6.93007
▁yer	-6.99662
▁bağlı	-7.0013
▁arasında	-7.02051
▁Türkiye	-7.02093
nı	-7.02736
▁göre	-7.04682
ların	-7.05362
▁veya	-7.06315
▁iki	-7.09218
daki	-7.0992
lerin	-7.10771
▁olduğu	-7.12722
/	-7.15107
l	-7.16797
▁A	-7.17582
r	-7.18016
o	-7.18249
▁|	-7.18468
▁İstanbul	-7.19828
z	-7.20834
km	-7.22002
▁Kaynakça	-7.23426
lik	-7.24137
an	-7.24963
nun	-7.25516
sı	-7.27297
▁oldu	-7.27749
en	-7.31221
y	-7.3281
▁Dış	-7.33723
di	-7.35194
ö	-7.35561
er	-7.35619
▁bağlantılar	-7.38018
yi	-7.38391
▁birlikte	-7.39267
ndan	-7.39343
▁Osmanlı	-7.40863
yı	-7.41231
nden	-7.4132
▁diğer	-7.41746
deki	-7.43077
ki	-7.43152
▁önemli	-7.4452
▁karşı	-7.44761
▁ya	-7.45081
yla	-7.45269
▁ilçesine	-7.464
▁her	-7.48875
▁aynı	-7.50989
▁yeni	-7.51175
▁Ayrıca	-7.51564
▁Amerikalı	-7.51585
yle	-7.518
▁adı	-7.52385
▁yıl	-7.53323
▁Dünya	-7.54058
▁Bir	-7.55674
▁I	-7.56337
B	-7.57371
▁bulunan	-7.58156
ma	-7.59088
ca	-7.59856
▁of	-7.60504
▁etti	-7.60927
tan	-7.61579
▁Avrupa	-7.61841
▁eski	-7.64205
ten	-7.64868
▁“	-7.66471
▁son	-7.67196
▁vardır	-7.67881
▁içinde	-7.68692
p	-7.68694
▁kabul	-7.6999
▁S	-7.70094
▁üzerine	-7.70526
▁adlı	-7.70569
lara	-7.7061
lık	-7.71652
lu	-7.71695
”	-7.72149
lere	-7.73015
ti	-7.73437
▁The	-7.74988
larını	-7.75597
sa	-7.7606
▁tarihinde	-7.76196
▁gelen	-7.76606
▁alan	-7.76953
▁ancak	-7.76972
se	-7.7716
▁birçok	-7.77206
▁şekilde	-7.79465
▁önce	-7.79678
al	-7.79855
▁%	-7.80097
▁En	-7.8031
lerde	-7.82237
larda	-7.824
▁sahip	-7.82432
▁üzere	-7.83301
▁olduğunu	-7.8418
me	-7.84943
▁yapılan	-7.85157
▁O	-7.85666
▁Paşa	-7.87063
▁bazı	-7.87068
▁zaman	-7.87218
ce	-7.87773
▁kendi	-7.88013
h	-7.88092
▁yüksek	-7.8995
▁aldı	-7.90012
g	-7.90419
▁tüm	-7.90775
▁başladı	-7.90841
▁fazla	-7.91206
lerini	-7.91218
ken	-7.9144
▁o	-7.91564
Y	-7.92875
ü	-7.92932
▁Savaşı	-7.93025
▁ortaya	-7.93285
▁Üniversitesi	-7.9334
b	-7.93497
▁üzerinde	-7.94437
▁devam	-7.94963
▁tek	-7.95366
▁the	-7.95839
||	-7.95907
▁farklı	-7.968
C	-7.97419
▁iyi	-7.97732
▁hem	-7.97965
man	-7.98015
▁II	-7.99193
▁Ankara	-7.99226
▁olmuştur	-7.99264
▁eden	-7.99835
▁Ancak	-7.99941
▁Amerika	-8.00213
f	-8.00246
ci	-8.00479
larının	-8.00667
▁Alman	-8.01016
▁üç	-8.01227
▁E	-8.01301
▁Ödülü	-8.01396
▁|-	-8.01996
▁M	-8.02311
▁C	-8.02576
ün	-8.02923
▁İngiliz	-8.03065
S	-8.03751
▁olmak	-8.04234
▁kez	-8.0447
us	-8.05222
▁Birleşik	-8.05243
▁biri	-8.06974
tir	-8.07552
▁–	-8.07686
A	-8.07997
ş	-8.08078
▁çeşitli	-8.08314
▁ikinci	-8.09855
▁Fransız	-8.09977
▁geri	-8.10429
▁Eylül	-8.10707
▁ABD	-8.11017
▁küçük	-8.11045
lerinin	-8.11061
▁bulunmaktadır	-8.11831
▁merkezine	-8.12401
▁Mart	-8.12435
▁olup	-8.12642
dı	-8.13162
c	-8.14063
dur	-8.1408
▁oyuncu	-8.14219
▁doğru	-8.14621
▁su	-8.14722
▁sırasında	-8.14739
ini	-8.14983
▁süre	-8.15102
▁Mayıs	-8.15304
▁ardından	-8.15512
▁ili	-8.1569
▁İlk	-8.16129
▁Roma	-8.16252
▁Almanya	-8.1713
▁nedeniyle	-8.17427
▁Anadolu	-8.17655
▁doğumlular	-8.17745
▁B	-8.18067
▁sadece	-8.18222
lardan	-8.18338
ir	-8.18452
▁T	-8.18573
▁yaklaşık	-8.18835
▁az	-8.19029
▁devlet	-8.19146
▁ilgili	-8.1932
on	-8.19765
▁uzun	-8.20086
larına	-8.20664
▁boyunca	-8.2151
▁edilen	-8.21747
▁Ocak	-8.21811
▁yüzyıl	-8.2186
▁kişi	-8.22352
▁Nüfus	-8.22582
▁Kasım	-8.22903
tır	-8.23035
sel	-8.23047
▁başka	-8.23471
▁yeniden	-8.23523
=	-8.2353
▁futbolcuları	-8.23531
lerden	-8.23535
▁Daha	-8.23727
ik	-8.23851
▁yaptı	-8.24435
▁Haziran	-8.2493
▁Tarihçe	-8.25244
▁Temmuz	-8.25255
el	-8.25378
▁genel	-8.25584
▁Ekim	-8.2603
lerine	-8.26566
▁K	-8.26871
▁and	-8.27
▁il	-8.27135
▁tarihi	-8.27371
tı	-8.27544
▁yerine	-8.27735
▁Aralık	-8.28045
at	-8.29005
▁savaş	-8.29466
▁ilinin	-8.29646
x	-8.29711
▁La	-8.29769
▁D	-8.29874
ar	-8.30246
▁gün	-8.30627
▁Ağustos	-8.30769
▁zamanda	-8.30867
▁Nisan	-8.31817
▁Coğrafya	-8.32271
▁yazar	-8.33099
▁Ali	-8.3322
▁İmparatorluğu	-8.33403
▁rağmen	-8.33547
larında	-8.3364
–	-8.33688
▁Kupası	-8.33819
▁altında	-8.33911
▁Bey	-8.33957
▁edildi	-8.33971
ine	-8.34139
▁yılı	-8.34228
▁Fransa	-8.34542
▁Büyük	-8.34666
▁ilçe	-8.34738
▁F	-8.34774
▁Doğu	-8.35209
▁olması	-8.35249
lerinden	-8.35287
▁yakın	-8.35343
▁G	-8.35687
▁yaptığı	-8.35897
▁müzik	-8.36042
▁kısa	-8.36238
▁özel	-8.36368
es	-8.3756
is	-8.37918
▁yol	-8.3823
▁Köy	-8.39175
▁Orta	-8.39478
ka	-8.39553
▁Şubat	-8.39767
▁eder	-8.398
▁köy	-8.39867
▁ele	-8.40233
▁ana	-8.40633
▁sıra	-8.40865
▁elde	-8.41033
(	-8.4114
▁insan	-8.4125
▁Kuzey	-8.41311
▁P	-8.41364
▁kurulan	-8.41579
▁tekrar	-8.41787
larından	-8.41917
oğlu	-8.41949
K	-8.42028
nu	-8.42243
▁Sultan	-8.42315
su	-8.42562
lerinde	-8.4279
▁futbolcu	-8.42826
▁film	-8.4289
▁genellikle	-8.43212
▁özellikle	-8.43311
▁sahiptir	-8.43464
▁kullanılan	-8.43567
▁on	-8.439
▁ait	-8.43917
▁bin	-8.43996
ra	-8.44012
▁Rus	-8.44044
re	-8.44067
▁uzaklıktadır	-8.44537
▁arasındaki	-8.44673
▁millî	-8.44934
▁yüzyılda	-8.45171
▁Güney	-8.45248
▁neden	-8.46028
ge	-8.46218
lerle	-8.46325
larla	-8.46542
▁beri	-8.47108
ndeki	-8.47216
liği	-8.47714
▁bakınız	-8.47846
to	-8.4802
î	-8.4822
il	-8.48264
os	-8.48455
▁gelir	-8.48505
im	-8.48545
▁iş	-8.49176
▁yılları	-8.49487
▁Her	-8.49589
▁Ar	-8.5031
▁kadın	-8.50426
▁Birliği	-8.50469
cı	-8.50496
▁Çin	-8.50621
▁Yeni	-8.50736
▁döneminde	-8.50887
▁oluşan	-8.50916
▁H	-8.51239
um	-8.5157
v	-8.51644
▁bulunur	-8.51883
▁teknik	-8.52013
▁Batı	-8.52685
▁çıkan	-8.52853
▁erkek	-8.53008
du	-8.53195
yan	-8.53372
▁bilinen	-8.53632
▁dört	-8.53673
▁dönem	-8.53683
lü	-8.53855
▁bütün	-8.53893
▁Al	-8.54557
ydi	-8.55016
▁Cumhuriyeti	-8.5518
▁merkezi	-8.55533
▁onun	-8.55742
▁hakkında	-8.55827
it	-8.56499
▁olur	-8.56563
▁dönemde	-8.56669
▁sonucu	-8.56816
▁var	-8.56924
▁Devletleri	-8.57027
mış	-8.57106
F	-8.57346
ba	-8.57586
▁Rusya	-8.58144
ter	-8.58472
▁geçen	-8.58566
▁m	-8.58731
▁futbol	-8.58816
▁Kara	-8.58899
et	-8.59199
▁mahalle	-8.59353
▁itibaren	-8.59386
|	-8.59449
▁ölenler	-8.59598
ktan	-8.59617
▁milyon	-8.59663
ga	-8.59677
▁olmayan	-8.59988
▁geniş	-8.6018
▁el	-8.60425
▁eğitim	-8.60429
T	-8.60452
▁dışında	-8.60516
ke	-8.6061
▁İyi	-8.60786
▁İslam	-8.609
▁sonunda	-8.60927
▁verilen	-8.60996
E	-8.61069
ve	-8.61152
▁iç	-8.61522
ndaki	-8.61565
sal	-8.6167
▁adıyla	-8.61816
mi	-8.61822
▁görev	-8.62247
▁De	-8.62254
▁ifade	-8.62306
▁dolayı	-8.62324
▁R	-8.62331
▁ayrıca	-8.62546
▁söz	-8.62662
▁dahil	-8.62688
▁verdi	-8.62699
▁açık	-8.62888
▁ay	-8.63098
M	-8.6329
▁Genel	-8.63324
ç	-8.63374
▁grup	-8.63659
▁MÖ	-8.63671
ını	-8.64101
▁temel	-8.64166
D	-8.64432
mıştır	-8.64539
▁şehir	-8.64799
ır	-8.64806
▁L	-8.64911
▁alır	-8.64961
▁birkaç	-8.65115
▁El	-8.65211
▁geldi	-8.65353
▁edilmiştir	-8.65404
▁tam	-8.65565
lama	-8.66135
▁kullanılır	-8.66195
▁onu	-8.6631
▁yanı	-8.66334
▁Devlet	-8.66335
▁U	-8.66593
▁New	-8.66712
▁Aynı	-8.66796
▁edilir	-8.66825
▁Su	-8.66997
▁Le	-8.67318
▁Bunun	-8.68107
▁ama	-8.68167
▁Yunan	-8.68294
j	-8.6851
▁yerleşim	-8.68653
ing	-8.68659
▁pek	-8.68659
▁adını	-8.68666
▁almıştır	-8.68724
tu	-8.68826
▁kalan	-8.68869
▁ki	-8.69037
▁takım	-8.69106
ton	-8.69185
ri	-8.69309
▁alt	-8.69343
▁çıktı	-8.69519
lığı	-8.69775
▁dünya	-8.70452
▁İtalyan	-8.70676
O	-8.70749
st	-8.70779
align	-8.70928
▁hava	-8.71247
ydı	-8.71382
▁bulunduğu	-8.71447
bi	-8.72117
▁Film	-8.72426
G	-8.72469
▁V	-8.72667
▁yapan	-8.72886
▁deniz	-8.73087
▁İngiltere	-8.73234
▁hemen	-8.73436
▁oğlu	-8.73476
▁Mustafa	-8.73778
▁gol	-8.73863
▁etmiştir	-8.74014
▁/	-8.74067
▁sahipleri	-8.74295
▁bilim	-8.74614
luk	-8.74825
lan	-8.75243
▁etmek	-8.75637
ist	-8.75685
▁Mısır	-8.75753
ia	-8.75774
yu	-8.7585
▁karar	-8.76067
▁kazandı	-8.76597
son	-8.76659
ur	-8.76824
▁değil	-8.7691
▁İtalya	-8.76978
▁ne	-8.77116
arak	-8.77181
ro	-8.7734
va	-8.77387
miş	-8.77526
▁Lig	-8.77557
ko	-8.77664
▁halk	-8.77715
▁içerisinde	-8.77773
ha	-8.77811
▁insanlar	-8.77822
▁üst	-8.78723
za	-8.78965
ak	-8.7902
▁Afrika	-8.79084
▁şu	-8.79094
be	-8.79249
▁çoğu	-8.80194
▁yine	-8.80212
▁belde	-8.80228
▁inşa	-8.8033
▁beraber	-8.80353
P	-8.80719
▁tür	-8.80838
▁Eski	-8.80883
sine	-8.80936
▁sinema	-8.80989
▁sahibi	-8.81421
▁Ay	-8.81672
▁fakat	-8.81748
▁siyasetçi	-8.81752
▁yıllarda	-8.81864
sını	-8.81929
▁John	-8.8194
▁dizi	-8.82275
ed	-8.82291
▁sistemi	-8.82876
▁takımı	-8.83059
▁Partisi	-8.83326
▁köyleri	-8.83436
▁yaygın	-8.83485
▁hareket	-8.83535
▁İspanya	-8.8357
sini	-8.83671
▁Mehmet	-8.83694
▁Me	-8.83942
▁Ne	-8.8422
go	-8.84536
miştir	-8.84784
kten	-8.84826
▁kaldı	-8.84846
▁Devleti	-8.84868
▁rol	-8.85121
mak	-8.85127
▁N	-8.85382
▁siyasi	-8.85631
▁Diğer	-8.85699
▁nüfus	-8.85878
H	-8.85919
▁toplam	-8.86059
▁Ahmet	-8.86083
▁meydana	-8.86198
do	-8.86293
▁yılından	-8.86345
▁bilgi	-8.8651
ran	-8.86536
▁Han	-8.86756
▁Amerikan	-8.87227
▁haline	-8.87277
▁Son	-8.87377
▁İran	-8.87406
▁sırada	-8.87449
▁ettiği	-8.87499
ch	-8.87542
▁ev	-8.87569
siz	-8.8776
çe	-8.8786
▁Ak	-8.88008
▁oldukça	-8.88131
w	-8.88169
ması	-8.88263
▁aldığı	-8.8851
▁nüfusu	-8.88615
han	-8.88663
▁para	-8.8871
▁=	-8.88748
▁Re	-8.88816
cu	-8.88869
teki	-8.88942
▁ünlü	-8.89055
▁Asya	-8.89088
sız	-8.89216
ol	-8.89255
▁askeri	-8.89275
▁değildir	-8.89531
der	-8.90063
▁yanında	-8.90276
▁resmi	-8.90406
▁iddia	-8.90424
nün	-8.90561
▁Fakat	-8.90623
lo	-8.90695
▁beş	-8.91129
no	-8.91207
▁Türkçe	-8.91377
▁ayrı	-8.91418
):	-8.91501
▁Müzik	-8.91689
▁filmler	-8.91693
▁din	-8.91886
▁ismi	-8.92128
▁Uluslararası	-8.92175
ck	-8.92295
▁yaşayan	-8.92311
▁ön	-8.9249
▁Altın	-8.92543
▁uygun	-8.92596
▁ülke	-8.92599
",	-8.92656
▁anlamına	-8.92667
▁Paris	-8.92734
▁adet	-8.92992
len	-8.9309
▁İzmir	-8.93127
▁J	-8.93197
▁Se	-8.93765
▁şeklinde	-8.94036
▁sonraki	-8.94216
▁İngilizce	-8.94463
▁idi	-8.94548
▁Er	-8.94638
▁sık	-8.94769
▁biridir	-8.95062
zi	-8.95063
tur	-8.95166
▁sezon	-8.95183
gen	-8.9522
▁yapı	-8.95424
▁güç	-8.95613
▁olabilir	-8.95641
▁televizyon	-8.95703
▁sayıda	-8.95744
dür	-8.95906
▁Sovyet	-8.95922
▁hiçbir	-8.96011
izm	-8.96353
▁at	-8.96366
çi	-8.96384
inin	-8.96399
▁bile	-8.9653
="	-8.96785
N	-8.96812
▁ilan	-8.96877
▁kısmı	-8.97057
▁şarkıcı	-8.97118
▁yani	-8.97191
I	-8.97347
sen	-8.97479
▁ISBN	-8.97634
▁ek	-8.97699
▁An	-8.98038
▁bölge	-8.98136
▁öldü	-8.98173
▁sayısı	-8.98179
▁dil	-8.98227
▁oluşur	-8.98266
ça	-8.98273
▁herhangi	-8.983
▁güçlü	-8.98345
▁ona	-8.98518
▁isimli	-8.98787
vi	-8.98888
▁sezonunda	-8.98997
▁altı	-8.99203
erek	-8.99261
▁Dr	-8.99323
ber	-8.99432
mo	-8.99547
gi	-8.99572
▁girdi	-9.00099
▁burada	-9.00237
▁uluslararası	-9.0033
taki	-9.00483
▁ses	-9.00561
▁konusunda	-9.00568
▁Krallık	-9.00584
▁yazarı	-9.00648
▁Kemal	-9.00682
ek	-9.00734
▁Bazı	-9.00817
▁Fakültesi	-9.00819
▁Yayınları	-9.00843
▁başına	-9.00879
▁çıkar	-9.01577
▁Na	-9.01628
▁gerçek	-9.02158
▁üyeleri	-9.02202
▁geçti	-9.02323
▁yıllık	-9.02408
▁baş	-9.02415
▁tiyatro	-9.02584
▁iline	-9.02608
▁vardı	-9.0263
leme	-9.02954
inde	-9.02964
▁Bizans	-9.03069
▁kara	-9.03123
▁günü	-9.03384
▁başlayan	-9.03502
com	-9.03577
▁köydür	-9.03808
▁İ	-9.03834
▁almaktadır	-9.04163
▁sonucunda	-9.04209
as	-9.04236
▁bunun	-9.04275
▁veren	-9.04534
▁dış	-9.04664
▁merkez	-9.04744
▁Örneğin	-9.0477
▁yok	-9.04821
ul	-9.0497
▁asıllı	-9.05039
▁ayında	-9.0509
▁benzer	-9.05265
V	-9.05286
th	-9.0549
▁Deniz	-9.05634
or	-9.05821
▁ekonomik	-9.07073
▁tamamen	-9.07132
▁orta	-9.07193
▁Ve	-9.07235
▁Merkezi	-9.07273
center	-9.07366
▁durum	-9.07608
▁Arap	-9.0761
▁İkinci	-9.07633
▁Tarihi	-9.07663
▁York	-9.07678
▁hizmet	-9.07791
▁ortak	-9.07868
ip	-9.08096
kan	-9.08257
▁göç	-9.08258
▁yıllarında	-9.08263
?	-9.08394
▁San	-9.08411
▁Sivas	-9.08477
▁Tanrı	-9.08515
U	-9.08516
▁itibarıyla	-9.08562
▁başarılı	-9.08629
lardır	-9.08676
R	-9.08881
men	-9.08899
▁sayı	-9.089
▁FIFA	-9.08975
▁yardım	-9.09177
▁amacıyla	-9.09311
▁nedenle	-9.09318
nü	-9.09557
▁W	-9.09855
▁doğal	-9.09858
▁ülkenin	-9.1029
mon	-9.10311
▁Sa	-9.10515
sinde	-9.10579
▁dünyanın	-9.10591
▁mücadele	-9.1078
▁sanat	-9.10855
▁Ligi	-9.10985
▁albümü	-9.10985
▁kültür	-9.11103
▁sosyal	-9.11113
▁yayın	-9.11136
▁üçüncü	-9.11148
ver	-9.11229
▁alanı	-9.11374
▁ileri	-9.11462
▁ağır	-9.11475
ül	-9.1185
▁temsil	-9.12208
▁oyuncusu	-9.12334
▁ara	-9.12393
tik	-9.12436
▁mahalleleri	-9.12523
▁katıldı	-9.12612
lerdir	-9.12706
▁Be	-9.13053
ov	-9.13096
▁kuruldu	-9.13225
▁Ma	-9.13332
▁saat	-9.13442
▁In	-9.13672
▁al	-9.13705
dığı	-9.1379
L	-9.13791
▁III	-9.13839
sına	-9.13878
kar	-9.13946
ında	-9.14236
▁kat	-9.14321
▁Güneş	-9.14375
▁modern	-9.14434
ev	-9.14726
▁Kültür	-9.14819
mektedir	-9.14822
▁kontrol	-9.14844
▁diye	-9.15248
▁şair	-9.1547
▁edilmiş	-9.1565
mer	-9.15676
▁iken	-9.15678
iye	-9.15705
▁başlamıştır	-9.1572
maktadır	-9.15737
▁oyun	-9.15867
▁an	-9.15893
▁doğumlu	-9.15919
mesi	-9.15922
leriyle	-9.15991
köy	-9.16002
▁ederek	-9.1602
▁Eğitim	-9.16069
▁tarih	-9.16078
▁Halk	-9.1611
▁başında	-9.16395
▁grubu	-9.16636
diği	-9.16768
co	-9.16835
▁yüzyılın	-9.16851
▁hızlı	-9.17142
▁X	-9.17266
▁asker	-9.17303
▁Cumhuriyet	-9.17334
▁Ha	-9.17439
▁genç	-9.17472
▁Sovyetler	-9.17507
▁sona	-9.17576
▁şey	-9.17602
▁Başkanı	-9.17644
▁üyesi	-9.17654
▁yoğun	-9.17831
▁olsa	-9.18076
ğ	-9.18286
▁Yahudi	-9.1832
▁to	-9.18348
▁düşük	-9.18423
mek	-9.18442
ze	-9.18728
▁verdiği	-9.18753
▁kendisine	-9.18858
▁belediye	-9.1889
▁Ana	-9.19077
mm	-9.19098
▁Vi	-9.19117
▁metal	-9.19147
▁başkanı	-9.19278
▁derece	-9.1928
▁tespit	-9.19282
▁Mo	-9.193
▁filmleri	-9.19392
sinin	-9.19471
lük	-9.19672
▁yerel	-9.19754
▁yalnızca	-9.19838
▁konu	-9.19929
▁Co	-9.19961
▁yaşam	-9.20049
ly	-9.20075
▁albüm	-9.20124
bu	-9.20715
larıyla	-9.20788
▁dönemi	-9.20896
▁enerji	-9.20898
▁izin	-9.20924
▁Kur	-9.21092
▁çalışan	-9.21092
▁İki	-9.21268
é	-9.21353
▁TBMM	-9.21509
▁kötü	-9.2171
▁&	-9.21767
▁içeren	-9.21784
▁Te	-9.21822
▁metre	-9.219
▁Da	-9.21992
▁bağımsız	-9.22044
▁No	-9.22061
▁maçta	-9.22066
▁yoktur	-9.22179
▁Ca	-9.22193
▁s	-9.22208
▁etmektedir	-9.22212
W	-9.22291
▁Müslüman	-9.22321
▁destek	-9.22367
▁Can	-9.22376
▁öğrenim	-9.22469
▁yapmıştır	-9.22626
▁yaş	-9.2275
▁Akdeniz	-9.23033
▁futbolcular	-9.23033
▁Tarih	-9.23167
▁Yunanistan	-9.23214
▁kız	-9.2337
iş	-9.23373
▁sonrasında	-9.23457
▁şarkı	-9.23652
▁defa	-9.23871
▁Millî	-9.23871
Ö	-9.24081
▁yarı	-9.24108
▁olmasına	-9.24173
ner	-9.24577
liğe	-9.24599
▁denir	-9.24784
▁yabancı	-9.24909
▁yılına	-9.24967
ger	-9.24969
▁yazarları	-9.25008
gan	-9.25227
▁Japonya	-9.25312
▁günümüzde	-9.25614
ad	-9.25632
▁bulundu	-9.25764
The	-9.25792
▁Futbol	-9.2595
▁Ordu	-9.25954
▁Böylece	-9.26042
▁kan	-9.26051
iz	-9.26166
▁yönetim	-9.26179
▁kitap	-9.26289
▁çocuk	-9.26341
▁çalıştı	-9.26377
▁işgal	-9.26404
▁göz	-9.26458
▁hale	-9.26497
▁Buna	-9.26617
▁sürekli	-9.26765
▁Ka	-9.26888
▁Man	-9.26893
▁Yaşayan	-9.27375
▁Yüksek	-9.27503
▁değer	-9.27517
▁babası	-9.27539
▁mahalledir	-9.27574
▁sayesinde	-9.27627
▁parçası	-9.27766
spor	-9.27896
▁filmi	-9.27898
▁Japon	-9.27969
▁sonrası	-9.28099
▁yana	-9.28203
ry	-9.28278
▁Lisesi	-9.2836
▁Muhammed	-9.2836
▁Öz	-9.28441
yen	-9.28448
ına	-9.28776
▁verildi	-9.28862
▁şehri	-9.28889
▁açısından	-9.28946
▁yazı	-9.29001
▁başlar	-9.29161
▁ilgi	-9.29223
▁üzerindeki	-9.29251
▁TV	-9.29262
▁İç	-9.29313
▁yönelik	-9.29322
▁beyaz	-9.29377
▁Süleyman	-9.29443
am	-9.29532
▁yeri	-9.29587
▁görülür	-9.29733
▁Belediye	-9.29975
▁Savaş	-9.29992
van	-9.30138
▁Hava	-9.30153
▁spor	-9.30296
▁Ben	-9.30365
çı	-9.30431
land	-9.308
▁sınırları	-9.30824
▁Özel	-9.30871
▁Bar	-9.30959
▁kardeşi	-9.30968
]	-9.31164
▁So	-9.31173
▁yedi	-9.31173
▁öne	-9.31587
▁İbrahim	-9.31675
ley	-9.31713
▁UEFA	-9.31713
▁Parti	-9.31719
▁döndü	-9.31812
▁Ra	-9.31942
▁Ho	-9.31981
ut	-9.32017
▁halinde	-9.32183
▁yapımı	-9.32201
▁Atatürk	-9.32293
nce	-9.32334
▁artık	-9.32349
pa	-9.32405
▁dikkat	-9.32427
▁Avusturya	-9.32591
²	-9.32716
▁çalışma	-9.32777
▁Ko	-9.32929
sh	-9.33056
Ş	-9.33094
▁Müzesi	-9.33332
▁belirli	-9.33408
▁listesi	-9.33562
▁yaşında	-9.33654
▁Irak	-9.33683
▁önceki	-9.33753
▁Mehmed	-9.33784
▁Hristiyan	-9.34091
▁arası	-9.34212
sında	-9.34294
pe	-9.34308
▁altına	-9.34321
▁dili	-9.34489
▁roman	-9.34571
▁dair	-9.3461
▁Y	-9.34666
▁kurulmuştur	-9.3467
▁Kar	-9.34671
▁yolu	-9.34684
▁Antik	-9.34784
://	-9.34931
▁Sanat	-9.35091
ör	-9.35091
▁Bakanlığı	-9.35116
▁İsrail	-9.35326
▁batı	-9.35428
▁bölgede	-9.35458
▁kendini	-9.35739
▁parti	-9.35749
▁üzerinden	-9.35851
▁kuzey	-9.35868
▁Karadeniz	-9.35906
tü	-9.35941
unu	-9.35957
▁İl	-9.36028
▁Ulusal	-9.36058
▁etkisi	-9.3606
▁Po	-9.36064
▁edilmektedir	-9.36159
▁Şampiyonası	-9.36704
▁bunu	-9.36919
▁elektrik	-9.3694
▁zorunda	-9.36956
hi	-9.36976
▁hiç	-9.37005
▁hafta	-9.37032
▁Süper	-9.37057
▁Ni	-9.37094
▁Kadın	-9.3721
▁Şehir	-9.37225
▁Tek	-9.37353
▁türü	-9.37358
▁ticaret	-9.37444
▁ortalama	-9.37455
ının	-9.37497
▁alarak	-9.37498
▁konusu	-9.37595
▁doğu	-9.37747
▁etme	-9.37798
İ	-9.38075
▁resmî	-9.38318
▁Do	-9.38329
▁Londra	-9.38339
ic	-9.38492
left	-9.38556
▁dini	-9.38589
▁İnsan	-9.38619
▁yazdığı	-9.38686
▁Nehri	-9.38697
▁araştırma	-9.38943
▁kızı	-9.39119
▁kişinin	-9.3917
fi	-9.39321
▁Suriye	-9.3938
▁Ri	-9.39508
▁sahne	-9.3955
▁bilinir	-9.39558
ah	-9.39571
▁Bölgesi	-9.39666
▁On	-9.39666
▁bölümü	-9.3974
▁veri	-9.39831
bir	-9.39837
▁taşıyan	-9.39845
▁Lo	-9.39934
▁etki	-9.39956
▁der	-9.4013
ım	-9.40166
▁Grup	-9.40201
▁çift	-9.40284
ot	-9.40306
bo	-9.40353
▁taş	-9.40476
yum	-9.40532
▁olmuş	-9.40543
▁sağ	-9.40599
▁geleneksel	-9.40641
▁Robert	-9.4071
▁çalışmaları	-9.40816
▁toprak	-9.40846
▁Osman	-9.40853
cm	-9.40866
▁süren	-9.4091
▁Azerbaycan	-9.40945
▁serbest	-9.41004
▁görenler	-9.41149
▁kaynağı	-9.41519
min	-9.41522
▁kuzeyinde	-9.4157
ğı	-9.41604
ür	-9.41624
▁et	-9.41652
id	-9.41657
▁Hindistan	-9.41788
▁ölçüde	-9.41974
▁James	-9.42137
▁Küçük	-9.42258
▁ince	-9.42331
▁gösterir	-9.42342
▁Kıbrıs	-9.42442
▁isim	-9.42497
▁seçildi	-9.42501
▁Pi	-9.42601
!	-9.42854
▁ordusu	-9.42917
▁Efendi	-9.42927
▁Krallığı	-9.43022
▁Ermeni	-9.43027
▁Fa	-9.43101
▁taşımaktadır	-9.43108
▁zor	-9.43185
▁Bo	-9.43469
▁kar	-9.43491
▁Çağ	-9.43526
▁Du	-9.4363
▁gelmiştir	-9.4366
ıp	-9.43819
▁kesin	-9.43846
gu	-9.43857
▁verir	-9.43987
▁yük	-9.44272
lığa	-9.44285
▁—	-9.44462
▁Bunlar	-9.44517
fe	-9.44548
▁çünkü	-9.44566
▁yüz	-9.4459
▁Nobel	-9.44597
▁üretim	-9.4473
▁Michael	-9.44851
▁Z	-9.44982
▁yardımcı	-9.45043
▁Kuvvetleri	-9.4535
▁etkili	-9.45375
▁Ta	-9.4539
▁kişiler	-9.45476
▁yapmak	-9.45483
▁tahmin	-9.45505
▁zengin	-9.45545
▁Spor	-9.45562
▁transfer	-9.45617
▁profesyonel	-9.45631
▁Li	-9.4565
▁sol	-9.4567
▁madde	-9.4576
ker	-9.45899
▁İspanyol	-9.45905
▁Hasan	-9.45943
▁kaynak	-9.4595
▁anda	-9.45973
▁müziği	-9.46056
▁St	-9.46098
ecek	-9.46137
▁Si	-9.46251
▁Günümüzde	-9.46256
▁insanı	-9.4627
▁geçmektedir	-9.46395
▁olma	-9.46405
▁yıldız	-9.46447
▁canlı	-9.46492
▁Ama	-9.4658
▁re	-9.46669
▁sene	-9.46761
tar	-9.47059
▁silah	-9.47066
▁Di	-9.47096
▁belli	-9.47129
ay	-9.47164
▁hükûmet	-9.47173
▁kökenli	-9.47206
_	-9.47331
▁fark	-9.47372
ku	-9.47519
▁tercih	-9.47537
▁Merkez	-9.47584
▁Özellikle	-9.47791
▁tarım	-9.47798
▁Pa	-9.48115
▁kurdu	-9.48149
▁kendisi	-9.48188
▁sitesi	-9.48329
▁yüzden	-9.48445
▁Başkanlığı	-9.48495
▁eşi	-9.48519
ho	-9.48545
▁çevre	-9.48692
▁Beşiktaş	-9.48696
▁uzak	-9.48745
▁William	-9.48754
▁düzenlenen	-9.4882
▁sebep	-9.48854
▁üye	-9.48916
▁görevi	-9.48991
▁bilgisayar	-9.49008
▁altın	-9.49055
▁kazanan	-9.49078
▁karşısında	-9.491
▁yapıldı	-9.49143
▁tarihli	-9.49149
▁He	-9.49205
▁kişilik	-9.49209
▁uzay	-9.49288
▁terk	-9.49305
ja	-9.49336
▁sağlar	-9.4935
▁To	-9.49562
▁aile	-9.49579
▁örnek	-9.49657
▁oy	-9.49674
sının	-9.49785
▁Şah	-9.49822
▁Ödülleri	-9.49828
▁Galatasaray	-9.49877
▁Ke	-9.49962
abilir	-9.49963
acak	-9.4997
kullanılmaktadır	-9.49973
▁ışık	-9.49987
▁başkenti	-9.50302
▁Gül	-9.5039
lanan	-9.50571
▁adına	-9.50583
▁birinci	-9.50615
▁Hint	-9.50951
▁top	-9.51093
▁Çok	-9.51132
▁ulusal	-9.51153
▁hatta	-9.51265
up	-9.51279
▁albümleri	-9.51309
tür	-9.51392
▁bitki	-9.51482
▁mevcuttur	-9.51625
▁yoluyla	-9.51823
▁takip	-9.51825
▁Mi	-9.51843
▁özellikleri	-9.5186
▁Tiyatrosu	-9.51898
▁oranı	-9.51947
▁Kralı	-9.51958
▁güney	-9.52014
tr	-9.52065
▁Dil	-9.52073
▁öğretim	-9.52093
▁Hayatı	-9.52123
▁gücü	-9.52259
▁kitabı	-9.52349
▁içerir	-9.52385
▁değişik	-9.52391
▁yapılmıştır	-9.52391
▁oluşturur	-9.52477
▁Go	-9.52525
▁kullanımı	-9.52697
▁olmadığı	-9.52774
▁doğrudan	-9.52776
▁annesi	-9.52789
▁ö	-9.52809
▁İlçe	-9.52845
▁yavaş	-9.52854
▁David	-9.52901
▁popüler	-9.52903
tal	-9.52956
▁sistem	-9.53062
▁Pro	-9.53102
kları	-9.5318
▁yönetimi	-9.53193
▁Bununla	-9.53255
X	-9.53282
▁etmiş	-9.53287
▁gösteren	-9.53383
▁arkadaşı	-9.53425
▁birimleri	-9.53494
▁adamı	-9.5358
▁dünyaya	-9.53603
▁çizgi	-9.53642
ebilir	-9.53685
▁Bursa	-9.53821
ru	-9.53837
▁içindeki	-9.53892
▁yan	-9.53919
▁bilimsel	-9.53952
▁Selçuklu	-9.53991
başı	-9.54071
â	-9.54098
fa	-9.54159
▁kralı	-9.54229
▁Burada	-9.54262
▁kayıtlarında	-9.54271
▁nasıl	-9.54292
▁yapısı	-9.54342
▁bölgesinde	-9.54386
>	-9.54434
let	-9.54451
▁kararı	-9.54472
can	-9.54674
▁Kral	-9.54746
▁ordu	-9.54797
Ma	-9.54864
▁George	-9.54933
▁sanayi	-9.54947
▁Portekiz	-9.54975
Z	-9.55179
▁arada	-9.55191
▁Yine	-9.55217
▁Paul	-9.55267
▁dönemin	-9.55338
▁şehrin	-9.55363
ster	-9.55397
▁Or	-9.5547
ren	-9.55505
▁Kore	-9.55518
▁yaşadığı	-9.55545
▁baskı	-9.55678
▁Oyuncu	-9.55698
▁kendisini	-9.55765
ey	-9.5577
lanmış	-9.55837
▁Yaz	-9.55852
▁gece	-9.56033
dü	-9.56058
wa	-9.5624
▁gelmektedir	-9.56274
▁[	-9.56379
▁yılının	-9.56414
▁Mar	-9.56531
▁alanında	-9.56651
▁Ahmed	-9.56688
▁öğrenci	-9.56749
▁parça	-9.5693
▁sanatçısı	-9.57082
lanma	-9.57108
▁Festivali	-9.57144
▁oluşturan	-9.57175
▁edilmesi	-9.57177
+	-9.57183
▁model	-9.5729
▁buna	-9.57333
▁radyo	-9.57414
ok	-9.57527
▁video	-9.57535
inden	-9.57564
▁yazdı	-9.57598
▁Çorum	-9.57621
▁normal	-9.57637
les	-9.5774
▁üretimi	-9.57743
▁piyasaya	-9.57836
▁sağlayan	-9.57855
▁İsveç	-9.57879
▁At	-9.57904
J	-9.57952
▁forma	-9.58033
▁katı	-9.58103
▁maç	-9.58194
▁Hüseyin	-9.58242
▁biçimde	-9.58296
▁eş	-9.5838
▁Denizi	-9.5843
▁+	-9.58495
▁başta	-9.58621
▁Camii	-9.58621
lardı	-9.58768
▁dışı	-9.58853
▁yapılmış	-9.59022
▁Kızıl	-9.59063
ji	-9.59171
▁kent	-9.59187
▁aday	-9.59211
▁mevcut	-9.59236
▁kullanılmıştır	-9.59278
▁maçında	-9.59283
layan	-9.59313
lak	-9.59405
▁Antlaşması	-9.59513
▁Bölüm	-9.59721
▁güneş	-9.59735
em	-9.59763
▁bazen	-9.59849
▁yerini	-9.59934
Bu	-9.59985
▁gerekli	-9.60057
▁giriş	-9.60117
▁Bi	-9.6016
▁erken	-9.60192
▁doğdu	-9.60194
▁tedavi	-9.60327
▁Adana	-9.60383
▁Van	-9.60419
▁Erkek	-9.60481
▁özelliği	-9.60774
▁‘	-9.60845
az	-9.60859
▁grubun	-9.60862
▁böylece	-9.60894
▁bugün	-9.60999
▁verilmiştir	-9.61038
sin	-9.61211
▁Ya	-9.61481
▁Britanya	-9.61574
▁Pe	-9.6171
▁Ordusu	-9.61792
▁zarar	-9.61887
▁Derneği	-9.6193
▁nedeni	-9.61932
▁hayvan	-9.62025
▁insanların	-9.62048
▁ilçesi	-9.6215
▁Bal	-9.62198
▁Gi	-9.62302
Ç	-9.62346
▁Hollanda	-9.62406
▁tane	-9.62425
▁b	-9.62575
▁dalga	-9.62592
▁bölüm	-9.62686
▁sınır	-9.62711
tor	-9.62798
▁Muharebesi	-9.62809
▁bağ	-9.62871
▁gazeteci	-9.62969
▁alınan	-9.63002
▁satın	-9.63109
liğin	-9.63243
▁ateş	-9.63256
▁sanatçı	-9.63262
▁for	-9.63276
▁yönetmen	-9.63355
▁durumu	-9.63402
vo	-9.63426
he	-9.63508
▁Kurulu	-9.63535
▁müzisyen	-9.63547
▁Var	-9.6357
ser	-9.63589
▁bölgesi	-9.63589
▁yazarlar	-9.63604
▁Dağı	-9.63841
▁Mu	-9.63984
zo	-9.6408
▁olay	-9.64192
▁hücre	-9.64396
▁sert	-9.64418
lenen	-9.64425
▁Teknik	-9.64469
▁Tüm	-9.64567
▁gitti	-9.64601
▁alma	-9.64623
lin	-9.64783
▁İsa	-9.64787
▁Enstitüsü	-9.6483
▁Birinci	-9.64849
▁Lu	-9.64921
yo	-9.64983
▁kullanarak	-9.65039
▁başarı	-9.65104
▁çıkmıştır	-9.65139
▁askerî	-9.65149
▁kırmızı	-9.65196
▁karşılık	-9.65214
▁Fenerbahçe	-9.65223
▁Edebiyat	-9.65344
▁gitar	-9.65413
tin	-9.65517
var	-9.65568
▁dolayısıyla	-9.65596
▁oyuncuları	-9.6563
▁vermiştir	-9.65637
▁ölüm	-9.65639
▁oynadı	-9.65735
▁gaz	-9.65742
▁Araştırma	-9.65784
▁yayınlanan	-9.6591
▁sınıf	-9.65989
▁ısı	-9.66017
▁ada	-9.6613
▁kurulmuş	-9.66159
▁faaliyet	-9.66185
▁öncesi	-9.66192
▁p	-9.66214
Ka	-9.66309
▁Jean	-9.66357
oloji	-9.66428
▁sebebiyle	-9.66431
▁Berlin	-9.6646
▁çoğunlukla	-9.6649
▁içine	-9.66518
▁şiir	-9.66537
pi	-9.66548
▁sayılı	-9.6665
▁ressam	-9.66656
▁Per	-9.66667
▁şöyle	-9.6668
ez	-9.66692
▁açtı	-9.66711
▁Okulu	-9.66761
▁esas	-9.66841
▁Tu	-9.66855
org	-9.66913
▁mi	-9.66932
▁Baş	-9.66986
nca	-9.67016
▁besteci	-9.67061
q	-9.671
▁durumda	-9.67173
▁Katolik	-9.67206
ap	-9.67266
▁sezonu	-9.67278
á	-9.67468
▁Polonya	-9.67493
iyle	-9.67496
laşma	-9.67503
uz	-9.6751
▁mezun	-9.676
▁Köyün	-9.67645
▁rock	-9.67698
İngilizce	-9.67731
bar	-9.67803
▁Ev	-9.67888
▁Tur	-9.6792
▁ziyaret	-9.67965
▁IV	-9.67967
net	-9.6797
cılık	-9.68011
▁söyledi	-9.68036
▁araya	-9.68052
sü	-9.68073
▁yapılır	-9.68099
▁klasik	-9.68205
eli	-9.68255
▁işaret	-9.68339
rak	-9.68378
je	-9.68404
▁verilir	-9.68409
▁neredeyse	-9.68443
▁Ba	-9.68505
▁yerde	-9.68518
▁bas	-9.68591
▁ayrıldı	-9.68634
▁Car	-9.6898
▁okul	-9.69055
▁olduğundan	-9.69168
▁antik	-9.69192
met	-9.69192
▁güneyinde	-9.69242
▁plan	-9.69284
▁yapar	-9.69394
▁Kilisesi	-9.69472
▁Ro	-9.69549
if	-9.69615
▁eser	-9.6962
▁yapmış	-9.69648
▁Con	-9.6971
▁yandan	-9.69727
dere	-9.69908
▁sıcak	-9.6992
▁edebiyat	-9.70001
▁Allah	-9.70019
▁grupları	-9.70022
▁mümkün	-9.70058
▁adında	-9.70078
▁adlandırılan	-9.70082
fer	-9.70136
▁lig	-9.70182
▁maçı	-9.70199
▁Resmi	-9.70209
▁bazıları	-9.70332
lanır	-9.70506
ac	-9.70527
ici	-9.70532
▁Arapça	-9.70647
▁olduğuna	-9.70674
lenmiş	-9.70723
▁do	-9.70913
▁yapma	-9.7097
▁hayatı	-9.7098
▁kol	-9.71088
▁Charles	-9.71112
▁ağ	-9.71146
▁Ti	-9.71181
▁Aydın	-9.71241
▁saldırı	-9.71275
san	-9.71296
ers	-9.71319
▁amacı	-9.7137
▁etmeye	-9.71417
▁kültürel	-9.7143
▁savunma	-9.71459
▁geçer	-9.71465
▁güzel	-9.71562
▁giren	-9.71572
▁Baba	-9.71577
eri	-9.71601
▁von	-9.71618
▁ilişkin	-9.71632
▁civarında	-9.71637
▁Din	-9.71664
▁hedef	-9.71704
liğini	-9.71705
▁iklim	-9.71727
▁Modern	-9.71742
▁bakımından	-9.71821
▁oyunları	-9.71895
ian	-9.71906
▁zamanında	-9.71966
ova	-9.71972
▁İsmail	-9.71984
▁Va	-9.71989
▁Uzun	-9.71994
unun	-9.7201
▁İş	-9.72037
▁eseri	-9.72057
▁FC	-9.72153
▁yaz	-9.72183
▁teslim	-9.72248
▁As	-9.72264
▁görülen	-9.72309
▁felsefe	-9.72453
▁gerek	-9.72587
ven	-9.72651
▁Fatih	-9.72689
▁yere	-9.72698
▁ülkede	-9.72716
▁Samsun	-9.72727
▁Avustralya	-9.72773
▁şehirler	-9.72888
▁ülkeler	-9.72957
mar	-9.72965
▁geçirdi	-9.73026
▁sağlamak	-9.7309
▁Fe	-9.73119
ts	-9.73135
▁uygulama	-9.73209
▁Antalya	-9.73314
▁noktası	-9.73358
kleri	-9.73398
▁ticari	-9.73398
▁kalmıştır	-9.73524
ından	-9.73583
▁Ge	-9.73606
▁kariyeri	-9.73771
▁hayatını	-9.73823
ft	-9.73849
tepe	-9.73877
maya	-9.73932
▁karşın	-9.74024
▁getirildi	-9.741
▁ailesi	-9.74191
▁Pan	-9.74241
▁zayıf	-9.74321
▁çocuğu	-9.74343
ret	-9.74445
▁geçiş	-9.74458
lılar	-9.74468
▁bilinmektedir	-9.74483
▁toplum	-9.74489
hane	-9.74508
▁Rum	-9.74695
▁Belediyesi	-9.74724
▁bunların	-9.74794
tes	-9.74871
▁çalışmalar	-9.74877
▁alındı	-9.7488
▁başlarında	-9.74926
▁yüzünden	-9.74993
şa	-9.75012
asyon	-9.75097
ion	-9.75102
▁Milletler	-9.75134
▁kimyasal	-9.75309
▁oldukları	-9.75379
▁oyuncular	-9.75445
▁kendine	-9.75478
▁sabit	-9.75494
gar	-9.75702
▁giderek	-9.7575
▁Yıldız	-9.75819
▁ilişki	-9.75856
▁Edirne	-9.75923
▁günlük	-9.76012
▁Hacı	-9.76019
▁yasa	-9.76025
▁Kanada	-9.76102
cilik	-9.76204
▁attı	-9.76214
▁aşırı	-9.76266
▁ciddi	-9.76289
▁devre	-9.76326
▁tip	-9.76338
▁Richard	-9.7634
▁genelde	-9.76363
▁geldiği	-9.76369
▁sefer	-9.76387
▁barış	-9.76452
▁göstermektedir	-9.76484
▁eğitimi	-9.76502
ks	-9.76542
▁demir	-9.76639
▁kalma	-9.76689
▁onları	-9.76817
lat	-9.76877
▁suç	-9.76934
▁Meclisi	-9.76941
Ha	-9.77108
▁Birçok	-9.77221
▁di	-9.77312
▁Ver	-9.77345
▁hala	-9.77402
▁Demir	-9.77402
▁Brezilya	-9.77406
▁Olaylar	-9.7746
▁önem	-9.77493
▁anlamda	-9.77519
ünü	-9.77723
▁arka	-9.77725
▁başlıca	-9.77739
▁gördü	-9.778
▁lideri	-9.77821
yken	-9.77857
▁yağ	-9.7803
▁seçim	-9.78065
tra	-9.78102
▁hızla	-9.78106
suz	-9.7814
▁Sen	-9.78169
▁kurulu	-9.7823
▁yayımlanan	-9.78234
▁renk	-9.78261
▁World	-9.78317
▁Kan	-9.78375
şi	-9.78431
▁fiziksel	-9.78482
▁siyah	-9.78486
▁tamamladı	-9.7851
▁Roman	-9.78525
▁gemi	-9.78548
▁engel	-9.78556
▁bulunmuştur	-9.7857
▁gerekir	-9.78624
▁yıllar	-9.78659
▁eserleri	-9.78688
▁doku	-9.78707
leşme	-9.78755
▁üniversite	-9.7885
▁alanda	-9.78912
▁Ku	-9.78942
ng	-9.78983
▁nokta	-9.78989
▁Grubu	-9.79247
ty	-9.7927
▁Ekonomi	-9.7929
▁oynanan	-9.79296
ant	-9.79425
dar	-9.79442
▁Bölümü	-9.7947
▁Ga	-9.79596
▁yurt	-9.79599
▁Selim	-9.79622
▁türleri	-9.79624
har	-9.79802
▁Gölü	-9.79851
per	-9.79895
▁f	-9.7996
ış	-9.79991
▁Gazi	-9.80014
▁halkın	-9.80027
yon	-9.8019
▁Üç	-9.80204
▁dile	-9.80287
▁derin	-9.80295
▁tipi	-9.8032
mp	-9.80438
▁sürdü	-9.80498
▁Hitler	-9.80502
▁asıl	-9.80593
▁standart	-9.80626
▁tahta	-9.80889
sk	-9.80928
▁Trabzon	-9.80959
▁hazır	-9.81009
sinden	-9.81167
▁önünde	-9.81229
▁Gürcistan	-9.81239
▁*	-9.81309
kin	-9.81315
şe	-9.81614
▁açıkladı	-9.81788
▁almak	-9.81859
▁Nazi	-9.81883
▁sıcaklık	-9.81917
▁birbirine	-9.81974
▁idam	-9.82042
▁yayınlandı	-9.82053
▁gereken	-9.8208
▁ölümünden	-9.8214
▁asit	-9.82178
▁geçmiş	-9.8221
www	-9.82214
▁halkı	-9.82225
▁Kitap	-9.82299
▁yara	-9.8231
▁geç	-9.82351
▁Yılın	-9.82392
▁etmesi	-9.82393
▁Şarkı	-9.82401
▁sarı	-9.82472
▁uçak	-9.82476
▁Fransızca	-9.82525
▁ortadan	-9.82534
▁sağlık	-9.82537
▁düşünce	-9.82624
▁hafif	-9.8269
▁milyar	-9.82693
▁eserler	-9.82712
so	-9.82716
▁İsviçre	-9.82821
▁kurucusu	-9.82824
▁darbe	-9.82887
▁Sosyal	-9.82915
▁böyle	-9.82928
▁gizli	-9.82957
▁olmadığını	-9.83016
▁görülmektedir	-9.83027
▁sağladı	-9.8312
mez	-9.83127
 °	-9.83257
▁vb	-9.83331
▁oyunu	-9.83346
▁Yer	-9.83348
▁Adam	-9.83376
▁Latin	-9.83589
▁saha	-9.83665
▁Chi	-9.8371
landı	-9.83744
▁Hukuk	-9.83813
▁sekiz	-9.83855
▁denilen	-9.83857
▁kaybetti	-9.83901
▁sonuç	-9.84001
oz	-9.84008
▁Güzel	-9.84049
▁Gün	-9.84067
▁Bulgaristan	-9.84084
sch	-9.84139
▁Eğer	-9.84231
Sa	-9.84304
▁insanları	-9.84353
che	-9.84402
▁basit	-9.84425
▁hakları	-9.84486
▁ödülü	-9.84495
▁Ülke	-9.84538
▁henüz	-9.84547
▁Kırım	-9.8458
▁birisi	-9.84597
▁Es	-9.84598
▁mal	-9.84682
mıştı	-9.84829
▁hak	-9.84877
din	-9.84916
▁bölgeye	-9.84918
▁geçmiştir	-9.8495
▁yerli	-9.84986
lanması	-9.84996
▁Kal	-9.85033
▁milletvekili	-9.85046
una	-9.8506
▁şarkıcıları	-9.8508
ası	-9.85179
▁Moskova	-9.8529
▁Akademisi	-9.85295
▁resim	-9.85299
▁koruma	-9.85351
po	-9.85401
▁çapında	-9.85466
▁toplumsal	-9.85517
val	-9.85541
▁Kayseri	-9.85826
▁aracı	-9.85875
▁Adası	-9.85879
od	-9.86012
ladı	-9.86026
▁halka	-9.86131
▁almış	-9.86244
▁Windows	-9.86363
▁dakika	-9.8641
▁Ser	-9.86429
▁halde	-9.86478
▁Sal	-9.86536
▁araç	-9.86591
▁giden	-9.86628
▁getirdi	-9.86653
▁aktif	-9.86766
▁final	-9.8679
▁Mü	-9.86832
res	-9.86852
▁General	-9.86956
▁Konya	-9.86976
▁gruplar	-9.86997
▁etnik	-9.87075
▁Za	-9.87084
▁konser	-9.87108
▁aslında	-9.87152
▁yılda	-9.87172
▁aktör	-9.87181
▁Peter	-9.87202
▁Ad	-9.87262
▁sanatçıları	-9.87416
▁yapılar	-9.87471
▁Ju	-9.87528
▁Kurtuluş	-9.8755
▁ismini	-9.87693
▁Ci	-9.87706
ll	-9.87734
▁Ja	-9.87745
▁sivil	-9.87785
ği	-9.87816
▁Yunanca	-9.87861
aj	-9.87863
▁sıvı	-9.8788
▁hukuk	-9.87938
▁av	-9.8794
▁hükûmeti	-9.88024
▁ad	-9.88039
▁Para	-9.88132
);	-9.8819
Se	-9.88195
▁olacak	-9.88195
▁Ol	-9.88202
▁Prof	-9.8825
▁bugünkü	-9.8842
▁şirketi	-9.88436
idae	-9.88466
▁Yusuf	-9.88598
▁haber	-9.88616
▁eşit	-9.88654
▁soğuk	-9.88691
▁Vakfı	-9.88713
▁politik	-9.88737
que	-9.88852
▁saf	-9.88876
▁anlaşma	-9.8893
▁dünyada	-9.88945
▁Barış	-9.8896
sta	-9.8899
▁söyler	-9.89085
hu	-9.8911
lay	-9.89125
▁yönünde	-9.8921
bey	-9.89286
▁devletin	-9.89315
▁seri	-9.89328
▁ak	-9.89403
▁mu	-9.89458
▁Mor	-9.89552
La	-9.89556
lığını	-9.89563
▁motor	-9.89751
▁Haçlı	-9.89752
meye	-9.8977
▁Ek	-9.89832
▁aşağıdaki	-9.89841
▁doğum	-9.89885
ment	-9.8989
ban	-9.89896
ou	-9.90044
▁Zaman	-9.90111
▁internet	-9.90127
▁Mezarlığı	-9.90195
▁içi	-9.90232
▁istifa	-9.90313
▁Topluluğu	-9.90341
▁madalya	-9.90404
▁Balıkesir	-9.90552
▁Press	-9.90601
▁Dağları	-9.90616
▁petrol	-9.90665
▁Hi	-9.90901
▁bölümünde	-9.90961
▁yanlış	-9.90973
▁gök	-9.91078
▁kıyı	-9.91083
ang	-9.91159
▁ağaç	-9.91189
▁Kulübü	-9.91242
▁merkezli	-9.91255
▁Star	-9.91282
▁gelişmiş	-9.91334
▁yönetmeni	-9.91341
▁bunlar	-9.91364
▁kazanmıştır	-9.9137
▁karakter	-9.91404
▁Murat	-9.91482
kı	-9.91499
▁Olimpiyat	-9.91535
kov	-9.91556
▁doğa	-9.91581
uk	-9.91618
lüğü	-9.91652
▁Kaya	-9.91671
▁kuvvetleri	-9.91706
▁Kurumu	-9.91796
▁Latince	-9.91854
▁amaçlı	-9.91903
▁kuvvet	-9.91944
▁gösterdi	-9.91946
kal	-9.92016
▁kulüp	-9.9204
▁Türkler	-9.9207
▁görüş	-9.92135
▁aracılığıyla	-9.92262
▁Taş	-9.92406
▁oynadığı	-9.92459
ince	-9.92487
▁adam	-9.92594
▁My	-9.92648
▁teknoloji	-9.92682
▁Babası	-9.92705
▁Gu	-9.92711
▁Adaları	-9.92733
▁Bunların	-9.92747
ation	-9.92772
▁ayı	-9.92822
▁Ölümler	-9.92895
sar	-9.92916
iyet	-9.9294
ss	-9.93013
kg	-9.93067
▁ettiler	-9.93077
▁Thomas	-9.93103
ıl	-9.93113
lem	-9.93148
▁iletişim	-9.93176
▁University	-9.93278
▁biraz	-9.93296
▁Erzurum	-9.93322
▁program	-9.93359
▁görevini	-9.93367
▁Men	-9.93369
▁gurbetçi	-9.93434
▁Orhan	-9.93467
▁kon	-9.93486
▁Bilgi	-9.93492
▁Ömer	-9.93506
▁birimi	-9.93509
▁değeri	-9.9351
▁kullandığı	-9.93632
ros	-9.93651
▁aksine	-9.93656
▁politikacı	-9.9376
▁dağ	-9.93801
▁hüküm	-9.93895
▁Doğumlar	-9.93933
▁Bilim	-9.94042
▁oluşmaktadır	-9.94052
▁Cumhurbaşkanı	-9.94105
ig	-9.94129
▁onların	-9.94134
▁ruh	-9.94156
▁Hu	-9.94293
▁kullanan	-9.94298
▁dilleri	-9.94346
▁direktör	-9.94417
▁nüfusun	-9.94436
▁yapmaya	-9.94448
▁yüzey	-9.94455
giller	-9.94525
▁gelişme	-9.94527
rat	-9.94562
▁sistemleri	-9.94682
▁Meclis	-9.94799
▁gerektiğini	-9.9482
miz	-9.94877
▁Cha	-9.94911
dy	-9.95038
▁Şampiyonlar	-9.95202
▁Müdürlüğü	-9.95217
▁yeterli	-9.95294
▁düz	-9.9534
En	-9.95387
▁çevresinde	-9.95408
layarak	-9.95471
her	-9.95516
▁puan	-9.95522
lis	-9.95592
▁ulaştı	-9.9562
▁proje	-9.95685
siyle	-9.95768
▁idari	-9.95808
▁İrlanda	-9.95814
▁yaparak	-9.95834
▁hız	-9.95854
maz	-9.95886
lenme	-9.95926
▁hareketi	-9.95956
▁İn	-9.95981
▁yayımlandı	-9.96027
▁Ö	-9.96054
tt	-9.96057
▁kanun	-9.9614
▁Har	-9.96274
▁ceza	-9.96293
▁dik	-9.96301
▁durumunda	-9.96302
▁tanrı	-9.96307
▁stüdyo	-9.96309
▁kişidir	-9.96321
▁c	-9.96322
▁evlendi	-9.96607
Birleşmiş	-9.96614
▁Ön	-9.9669
lim	-9.96717
ham	-9.96781
▁Kutsal	-9.96825
▁Cor	-9.96851
▁Bölge	-9.96896
▁yayınladı	-9.96905
▁Bas	-9.96944
▁Sarı	-9.97109
▁milletvekilleri	-9.97153
baş	-9.9726
▁liman	-9.97313
▁yeşil	-9.9734
▁eyalet	-9.97423
▁sonradan	-9.97511
▁ödül	-9.97525
▁zamanlarda	-9.9755
▁Yozgat	-9.97556
▁savaşı	-9.97573
▁kalp	-9.97798
▁kale	-9.9782
▁Aşk	-9.97834
▁kitapları	-9.97846
▁kuru	-9.97876
▁özerk	-9.97935
▁sonlarında	-9.97946
▁işlem	-9.97968
▁dördüncü	-9.98052
▁Ege	-9.98195
▁kanıt	-9.98209
▁Sch	-9.98301
▁as	-9.98302
tis	-9.9837
▁bıraktı	-9.98468
▁Hanedanı	-9.98531
▁eline	-9.98589
chi	-9.98653
▁Ab	-9.98655
▁adlandırılır	-9.98664
▁Mac	-9.98677
lanmıştır	-9.98735
▁kullanım	-9.98755
nik	-9.98804
▁Gök	-9.98904
▁Tra	-9.98914
gel	-9.98916
ius	-9.98922
▁bilgiler	-9.9898
▁Çanakkale	-9.99021
▁Diyarbakır	-9.99086
▁siyaset	-9.9909
▁benzeri	-9.99113
▁yarış	-9.99129
▁Çünkü	-9.99156
▁Ağa	-9.99161
▁akım	-9.99186
▁kamu	-9.9926
▁hakkı	-9.99279
▁imza	-9.99365
▁bit	-9.99424
lendi	-9.99452
▁mahallesi	-9.99463
▁Papa	-9.99504
▁kelime	-9.99598
▁bölgenin	-9.99613
▁ton	-9.9962
▁kişisel	-9.99652
ent	-9.99664
▁performans	-9.9968
▁pro	-9.99736
ağı	-9.99787
▁çoğunluğu	-9.99806
▁hayat	-9.99839
ıyor	-9.99886
▁miktarda	-9.99958
▁Is	-10.0001
▁anti	-10.0008
▁orada	-10.0009
by	-10.0009
▁Ye	-10.002
ana	-10.002
▁Çelebi	-10.0025
▁etkileri	-10.003
▁ila	-10.0036
▁kutsal	-10.0043
ık	-10.0043
ny	-10.0053
lon	-10.0054
▁başlandı	-10.0054
▁Kısa	-10.0054
▁Tom	-10.0056
▁yapılmaktadır	-10.0062
▁sözleşme	-10.007
Re	-10.0071
▁Marmara	-10.0072
▁üretilen	-10.0073
▁Sarayı	-10.0074
▁dava	-10.0082
▁pazar	-10.0082
nes	-10.0084
▁Kürt	-10.0092
▁yapmaktadır	-10.0093
▁ders	-10.0094
▁önceleri	-10.01
▁web	-10.0105
▁birlikleri	-10.0107
don	-10.0114
▁Don	-10.0119
▁günümüze	-10.0119
▁Gar	-10.012
▁örneğin	-10.012
lenir	-10.012
▁vermek	-10.0123
▁tasarım	-10.0123
▁Şu	-10.0127
▁dek	-10.0127
▁Sakarya	-10.0129
▁işlemi	-10.013
▁edilebilir	-10.0137
▁Louis	-10.0144
▁İbn	-10.015
▁Eserleri	-10.0154
▁ilişkiler	-10.0154
▁insanın	-10.0158
▁düştü	-10.0158
▁Ticaret	-10.0177
▁Fer	-10.0181
▁ekonomi	-10.0182
▁türlü	-10.0184
▁ölümü	-10.019
gin	-10.02
▁Ada	-10.0206
▁tank	-10.0206
▁Ara	-10.0211
▁ayrılır	-10.0213
gon	-10.0214
▁Resim	-10.0219
▁düzenli	-10.0224
▁g	-10.0227
▁elinde	-10.0229
▁hesap	-10.0232
▁Bakanı	-10.0234
▁yılındaki	-10.0235
Me	-10.0237
yar	-10.0237
▁orijinal	-10.0239
▁isteyen	-10.0239
cık	-10.0242
▁Tiyatro	-10.0243
▁vergi	-10.0244
▁kaya	-10.0246
bit	-10.0248
▁Kalesi	-10.0248
▁direktörleri	-10.0253
▁Tıp	-10.0253
▁doğusunda	-10.0256
▁şirket	-10.0257
▁romanı	-10.0257
▁Söz	-10.026
▁tarihçi	-10.0265
muş	-10.0273
▁ilişkileri	-10.0274
▁Martin	-10.0281
luğu	-10.0281
▁eyaletinde	-10.029
▁Abdullah	-10.029
▁köyü	-10.0301
tif	-10.0304
ral	-10.0308
▁düşman	-10.0308
▁gelmiş	-10.0311
▁çıkardı	-10.0321
▁kapalı	-10.0321
▁İmparatoru	-10.0321
▁kolay	-10.0332
▁şekil	-10.0336
▁konuşma	-10.0336
▁Un	-10.0338
▁Konseyi	-10.0359
▁batısında	-10.0362
▁Sağlık	-10.0365
▁görüntü	-10.0365
isi	-10.0366
bel	-10.0366
▁kaza	-10.0368
▁dönüş	-10.0375
▁Fi	-10.0384
▁varlığı	-10.0391
▁açıdan	-10.0391
mus	-10.0395
▁Karl	-10.0396
▁Sinema	-10.0397
▁filozof	-10.04
▁güvenlik	-10.0407
▁göl	-10.0408
▁yaşadı	-10.0409
▁Atina	-10.0414
▁atandı	-10.0416
shi	-10.0416
▁NBA	-10.0417
▁yaşanan	-10.0419
▁yazılı	-10.0426
▁Ru	-10.043
▁ihtiyaç	-10.0435
▁kral	-10.0438
▁takımın	-10.044
▁çalışması	-10.0441
▁polis	-10.0443
▁hızı	-10.0451
▁Mer	-10.0463
▁altındaki	-10.0464
▁hakim	-10.0478
▁Joseph	-10.0479
ard	-10.0482
▁aralarında	-10.049
▁gören	-10.0496
▁Los	-10.0497
▁gözlem	-10.0498
bin	-10.0504
Le	-10.0515
▁kas	-10.0517
▁taşı	-10.0519
▁Top	-10.0523
▁Ki	-10.0527
▁süresi	-10.0528
▁MS	-10.0529
▁serisi	-10.053
▁başkent	-10.0533
dığını	-10.0535
▁Osmanlılar	-10.0539
▁verme	-10.0541
▁Olimpiyatları	-10.0541
▁tarzı	-10.0547
▁buz	-10.0552
▁hikâye	-10.0555
▁sebebi	-10.0557
▁olmakla	-10.0561
▁pop	-10.0564
io	-10.0568
unda	-10.0571
▁açıldı	-10.0572
▁ürünleri	-10.0573
▁yılın	-10.0581
▁Sitesi	-10.0581
▁Bugün	-10.0582
▁gemisi	-10.0585
ktedir	-10.0605
▁Yönetim	-10.0617
lığın	-10.0617
las	-10.0621
▁emekli	-10.0624
dil	-10.0625
▁örgüt	-10.0627
ıcı	-10.0627
▁cami	-10.0628
ron	-10.0629
▁kapı	-10.0631
▁Oyun	-10.0635
▁programı	-10.0638
▁Kent	-10.0639
▁hayvanlar	-10.0642
ris	-10.0645
▁kullanıldı	-10.0645
▁oluşturduğu	-10.0661
▁Par	-10.0662
▁yüzde	-10.0662
▁Kudüs	-10.0663
▁kilise	-10.0665
cü	-10.0668
▁sahipliği	-10.0669
▁hastalığı	-10.0672
▁takımının	-10.0678
▁renkli	-10.0679
▁Albüm	-10.0681
▁genelinde	-10.0684
▁İmparator	-10.0688
▁cinsel	-10.0688
▁mü	-10.0691
▁Pu	-10.0692
▁zamanla	-10.0693
▁Arjantin	-10.0709
▁Macaristan	-10.0719
▁gider	-10.0728
▁özgü	-10.073
▁no	-10.0737
▁bağlantı	-10.0739
▁Akademi	-10.0739
off	-10.0743
▁önde	-10.0748
▁bina	-10.075
▁DNA	-10.0751
berg	-10.0756
▁Viyana	-10.0762
▁babasının	-10.0769
▁Hanım	-10.0773
Si	-10.0781
▁tarihinin	-10.0782
sından	-10.0795
▁terimi	-10.0796
yer	-10.0804
ara	-10.0808
°	-10.0812
▁çıkış	-10.0815
▁zamanlar	-10.0815
au	-10.0817
▁Henry	-10.0825
zade	-10.0829
▁Ter	-10.083
ong	-10.0832
sıyla	-10.0832
▁Jo	-10.0836
ih	-10.084
uş	-10.0848
▁sınıfı	-10.0851
▁tıp	-10.0851
▁yapıldığı	-10.0863
▁Ukrayna	-10.0867
▁birliği	-10.0867
▁Alt	-10.0875
▁ikisi	-10.0877
▁tehdit	-10.0881
▁Romanya	-10.0883
▁istedi	-10.0885
▁karmaşık	-10.0887
▁statüsü	-10.0888
yor	-10.089
▁sinir	-10.0894
▁almaya	-10.0895
▁Bay	-10.0901
▁Tri	-10.0911
Türk	-10.0914
▁Harry	-10.0914
▁alanları	-10.093
▁girmiştir	-10.0935
▁yerleri	-10.0942
▁Eskişehir	-10.0944
▁kod	-10.0945
Al	-10.0952
▁Pers	-10.0956
▁Balkan	-10.0961
▁Gürcü	-10.0964
▁boyu	-10.0966
▁lisans	-10.0967
▁lise	-10.0972
iyor	-10.0972
▁Rock	-10.0979
esi	-10.099
а	-10.0992
cılar	-10.0993
▁arazi	-10.1001
▁yola	-10.1005
▁belirgin	-10.1009
mann	-10.1014
▁Ortodoks	-10.1028
wi	-10.1033
▁tepki	-10.1034
▁Nüfusu	-10.1039
▁Schleswig	-10.1041
kon	-10.1043
▁ayak	-10.1046
▁Sistemi	-10.1049
▁bağlıdır	-10.1054
▁maruz	-10.1055
▁çalışmaya	-10.1061
▁uzanan	-10.107
")	-10.1079
%	-10.1079
▁belediyesi	-10.1094
▁mimar	-10.1095
▁açılan	-10.1103
▁işçi	-10.1104
▁hasta	-10.1112
▁basın	-10.1112
zan	-10.1113
▁Devrimi	-10.1114
▁cezası	-10.1116
▁Beyaz	-10.1121
▁otomobil	-10.1125
row	-10.113
▁Yu	-10.113
▁Sol	-10.1134
▁modeli	-10.1135
▁filminde	-10.1138
bil	-10.114
▁Norveç	-10.115
▁Genç	-10.1151
altı	-10.1158
▁sonuna	-10.1162
▁Bilimler	-10.1162
bor	-10.1166
▁fizikçi	-10.1167
kat	-10.1169
▁kelimesi	-10.1171
▁Kız	-10.1172
▁yapılması	-10.1174
▁desteği	-10.1175
▁atom	-10.1177
▁maddeler	-10.1178
▁yemek	-10.118
we	-10.1183
▁çekti	-10.1184
jo	-10.1191
▁kavramı	-10.1192
▁suyu	-10.1194
▁Genellikle	-10.12
fo	-10.12
▁style	-10.12
ph	-10.1205
▁Art	-10.1207
▁Sam	-10.1211
▁hastalık	-10.1213
▁kullanılabilir	-10.1213
▁bitirdi	-10.1227
▁yumurta	-10.1228
▁kilometre	-10.1236
▁Takım	-10.1239
▁Sta	-10.1239
▁Am	-10.124
­	-10.1243
▁Yerelnet	-10.1244
▁ister	-10.1248
eceği	-10.125
▁olaylar	-10.1251
▁ka	-10.1266
ling	-10.1268
▁edildiği	-10.1274
▁şehrinde	-10.1275
tel	-10.1278
▁sahil	-10.1279
▁Bra	-10.1283
Bir	-10.1284
om	-10.1286
▁idare	-10.129
▁malzeme	-10.1291
ünün	-10.1299
▁site	-10.1301
ie	-10.1308
▁kuş	-10.131
▁alınması	-10.1311
▁maddesi	-10.1311
▁Uzay	-10.1312
▁doğan	-10.1319
▁Yapı	-10.1319
▁katılan	-10.132
bay	-10.1322
▁tanı	-10.1322
▁Oyunları	-10.1325
▁kuruluş	-10.1331
▁Kaliforniya	-10.1333
▁Ren	-10.1334
▁Hollandalı	-10.1336
vin	-10.1342
▁Doğan	-10.1344
▁kapsamında	-10.1348
▁Anti	-10.1355
▁Timur	-10.1357
▁kayıt	-10.1362
▁Bunlardan	-10.1364
▁Ruh	-10.1372
▁yazılmış	-10.1374
▁defnedilenler	-10.1376
▁single	-10.1376
▁sürede	-10.1376
▁oda	-10.1377
▁Carl	-10.1379
▁Az	-10.1381
▁buldu	-10.1381
▁meyve	-10.1386
▁kalın	-10.1391
▁İnternet	-10.1394
▁aşağı	-10.1398
rit	-10.1399
▁Venedik	-10.1399
▁Web	-10.1401
▁yakıt	-10.1402
cik	-10.1409
▁Fen	-10.1415
▁Cemiyeti	-10.142
▁hattı	-10.1425
▁Belçika	-10.1429
ize	-10.1429
▁programları	-10.1429
▁Şeyh	-10.143
zen	-10.1437
▁koyu	-10.1438
tro	-10.144
ab	-10.1445
▁ulaşım	-10.1445
▁Çek	-10.1448
▁kap	-10.1452
▁Madrid	-10.1456
▁bulunması	-10.146
▁Dar	-10.1464
▁Komünist	-10.1469
▁Sinop	-10.1472
▁dönemlerde	-10.1473
▁Açık	-10.1481
yse	-10.1485
▁Çocuk	-10.1488
▁şeker	-10.149
▁çeşit	-10.1495
▁Filistin	-10.1501
▁orman	-10.1501
▁anlamı	-10.1502
abilecek	-10.1502
lâ	-10.1503
▁esnasında	-10.1503
▁Yılmaz	-10.1504
▁Sar	-10.1504
▁Tor	-10.1505
▁Ç	-10.1507
De	-10.1508
eti	-10.1509
▁anılan	-10.1512
▁uç	-10.1514
▁erdi	-10.1528
▁Türkmen	-10.1531
▁Bundan	-10.1534
▁atan	-10.1539
▁dizisi	-10.1539
ä	-10.1557
▁çözüm	-10.1561
ysa	-10.1562
▁All	-10.1562
▁Cem	-10.1563
▁Ata	-10.1563
▁durumlarda	-10.1563
▁Çağı	-10.1564
ff	-10.1566
av	-10.1573
▁etrafında	-10.1573
и	-10.159
▁Black	-10.1592
▁yazılım	-10.1603
▁deri	-10.1604
▁yönettiği	-10.1606
▁disk	-10.1608
▁kasaba	-10.1609
▁talep	-10.1614
ses	-10.1618
▁Başkan	-10.1624
▁kimi	-10.1624
ğa	-10.1625
▁ederler	-10.1626
▁Beş	-10.1626
the	-10.163
▁War	-10.1632
▁Angel	-10.1637
taş	-10.1639
▁Frank	-10.1642
bra	-10.1642
ct	-10.1648
▁Saint	-10.1649
▁İskender	-10.1651
lerdi	-10.1652
▁kalır	-10.1654
▁Real	-10.1658
▁Ardından	-10.1666
▁kenti	-10.1667
▁yolcu	-10.1668
▁Of	-10.1671
▁uçağı	-10.1671
▁Ber	-10.1672
liler	-10.1682
▁sözcüğü	-10.1685
▁by	-10.1686
▁yöntem	-10.1692
tre	-10.1702
ktadır	-10.1703
▁Şa	-10.1707
kta	-10.1711
▁mesafe	-10.1731
▁taşır	-10.1732
▁savaşın	-10.1736
▁ülkelerde	-10.1737
▁You	-10.1738
gal	-10.1744
▁bilinmeyen	-10.1744
▁sonuçları	-10.1747
▁Yaşam	-10.1751
▁vokal	-10.1752
▁<	-10.1757
▁Ş	-10.176
▁dizileri	-10.1761
▁Mahkemesi	-10.1761
▁etkin	-10.1763
▁Üçüncü	-10.1768
▁vurgu	-10.1772
▁şarkısı	-10.1774
▁Klasik	-10.1775
▁esir	-10.1777
▁tarihleri	-10.178
ydu	-10.1783
▁teşvik	-10.1784
lardaki	-10.1789
bur	-10.179
▁Federasyonu	-10.179
ınca	-10.1801
▁acı	-10.1804
▁gruba	-10.1805
▁nüfusunun	-10.1805
▁We	-10.1807
▁taarruz	-10.1809
▁çekildi	-10.181
▁Col	-10.1816
▁Uygulama	-10.1816
par	-10.1818
▁başlamış	-10.1818
ıyordu	-10.1822
▁Sinan	-10.1826
layıcı	-10.1827
▁İst	-10.1831
▁kullanılarak	-10.1833
ril	-10.1833
yordu	-10.1838
▁kullanılması	-10.1841
▁şunlardır	-10.1841
▁iz	-10.1843
▁Bütün	-10.1844
▁artan	-10.1845
▁Yıl	-10.1845
▁ben	-10.1847
kor	-10.185
▁güven	-10.1851
▁Hal	-10.1866
▁Bankası	-10.1867
û	-10.1867
▁kitabında	-10.1874
▁kütle	-10.1878
▁Meksika	-10.188
▁Park	-10.1881
▁sisteminin	-10.1881
▁artış	-10.1883
▁Yol	-10.1888
▁başladığı	-10.1891
▁Almanca	-10.1895
▁Meslek	-10.19
▁yanına	-10.1901
▁manyetik	-10.1905
▁gazete	-10.1909
lidir	-10.1915
Ü	-10.1919
▁Mal	-10.1922
ans	-10.193
lenmesi	-10.1931
gü	-10.1938
▁Ermenistan	-10.1938
▁büyü	-10.1939
▁antlaşma	-10.1944
▁geçici	-10.1946
▁Kor	-10.1949
▁Aziz	-10.195
▁siyasetçiler	-10.1956
▁ötürü	-10.1959
▁isyan	-10.1973
qui	-10.1973
▁Stadyumu	-10.1976
▁medya	-10.1977
▁Ur	-10.1978
iyordu	-10.1979
▁gümüş	-10.1981
▁Tan	-10.1986
▁sürgün	-10.1989
▁Kanunu	-10.1989
▁başardı	-10.1997
▁çalışır	-10.1998
An	-10.2
▁ölü	-10.2003
▁çıkmış	-10.2003
hat	-10.2004
▁politika	-10.2005
▁teorisi	-10.2005
▁kendisinin	-10.2006
veya	-10.2007
▁sürdürdü	-10.2009
lenmiştir	-10.2012
▁hakkındaki	-10.2013
▁olmadan	-10.2016
web	-10.2018
▁dolar	-10.2019
▁Tam	-10.2021
kaya	-10.2025
▁Günü	-10.2027
▁tren	-10.2038
▁teklif	-10.2041
▁bakış	-10.205
▁Washington	-10.2051
▁vermektedir	-10.2054
▁TRT	-10.2056
▁Halil	-10.2062
▁Je	-10.2063
▁sal	-10.2076
▁Fin	-10.2078
▁miktarı	-10.2078
▁tarihsel	-10.208
▁League	-10.2087
▁du	-10.209
▁şiddet	-10.2098
mişti	-10.211
▁Köyü	-10.2111
▁ordusunun	-10.2117
▁yaşamaktadır	-10.2125
▁dayalı	-10.2127
▁Musa	-10.213
▁kısmen	-10.2137
▁Yaşamı	-10.2147
▁boya	-10.2148
▁yapımcı	-10.2149
ız	-10.2154
▁kır	-10.2154
▁anlam	-10.2155
▁bölgelerde	-10.2157
▁dayanan	-10.2159
▁Sonra	-10.2163
▁Tar	-10.2168
▁or	-10.2172
▁Love	-10.2172
▁cam	-10.2173
í	-10.2175
▁yağış	-10.2178
▁yerlerde	-10.2179
▁Cephesi	-10.2181
▁balık	-10.2184
▁dışındaki	-10.2185
▁demiryolu	-10.2188
lam	-10.2189
▁ediyor	-10.2189
▁Ülkenin	-10.219
▁bölgesine	-10.219
▁geçerek	-10.2191
▁Pat	-10.2192
▁aylarında	-10.2204
▁Sun	-10.2207
▁sayfası	-10.2226
ciler	-10.223
▁can	-10.2236
▁Brezilyalı	-10.2241
▁yazılan	-10.2243
ps	-10.2244
▁çıktığı	-10.2244
Ar	-10.2244
▁parlak	-10.2246
dor	-10.2249
kü	-10.225
▁Mark	-10.2252
mik	-10.2254
pp	-10.2255
▁Macar	-10.2257
▁Kafkasya	-10.226
▁kullanır	-10.2265
▁edip	-10.2269
▁tayin	-10.2272
▁yakınlarında	-10.2274
▁dişi	-10.229
▁align	-10.2301
ura	-10.2303
▁United	-10.2307
▁toprakları	-10.2308
▁City	-10.2308
▁tepe	-10.2311
▁Sırp	-10.2313
▁küme	-10.2314
▁ülkeleri	-10.232
▁birer	-10.232
▁tur	-10.2321
▁değildi	-10.2322
▁Kay	-10.2323
▁Mahmud	-10.2332
▁algı	-10.2342
▁imparatoru	-10.2342
▁öldürüldü	-10.2348
▁kanat	-10.235
▁merkezinde	-10.2351
▁bilimi	-10.2355
tay	-10.2356
▁paralel	-10.2363
▁em	-10.2365
▁Yan	-10.2367
lerdeki	-10.2371
tz	-10.2374
▁Sosyalist	-10.2374
▁tarihte	-10.2376
▁seçimlerinde	-10.2376
▁varlığını	-10.238
ski	-10.2382
▁sorumlu	-10.2389
▁yargı	-10.2394
▁düzey	-10.2396
▁ürün	-10.24
▁öz	-10.24
▁gerçekleşen	-10.24
▁yaşındayken	-10.2401
ğu	-10.2401
▁mümkündür	-10.2401
▁önceden	-10.2403
▁sunucu	-10.2415
▁tanım	-10.2415
cha	-10.2419
▁yapımcısı	-10.2425
▁onlara	-10.2428
▁oluşumlar	-10.2428
▁gezegen	-10.2436
▁gördüğü	-10.2437
müş	-10.2437
ucu	-10.2438
▁eğer	-10.244
▁saygı	-10.2441
tion	-10.2444
▁mimari	-10.2445
▁başkan	-10.2445
▁matematikçi	-10.2446
▁Bil	-10.2449
▁köprü	-10.2454
▁Çoğu	-10.2456
car	-10.2458
ılan	-10.2462
▁senarist	-10.2465
▁düşünülmektedir	-10.2466
▁Hükûmeti	-10.2467
hal	-10.2483
▁(%	-10.2485
▁turizm	-10.2486
▁Yıldırım	-10.2488
▁değişiklik	-10.2491
▁Yavuz	-10.2496
▁önüne	-10.2497
▁Sanayi	-10.2497
▁şekli	-10.2499
▁Wi	-10.2499
▁adım	-10.25
▁Notlar	-10.2502
▁elektronik	-10.2502
▁Kanadalı	-10.2502
▁nükleer	-10.2503
▁karısı	-10.2504
▁kökeni	-10.2508
▁Dönem	-10.2509
mur	-10.2514
mat	-10.2515
ā	-10.2516
▁Yeşil	-10.2519
▁kurulması	-10.252
▁adının	-10.2521
▁sorun	-10.2525
▁Emir	-10.2527
▁x	-10.2527
▁Sha	-10.253
▁rolü	-10.2534
▁bölgesinden	-10.2537
leyen	-10.2543
▁dolu	-10.2543
▁kısmında	-10.2544
▁Finlandiya	-10.2546
▁yaşamı	-10.2546
ary	-10.2548
▁Nu	-10.2548
▁yöntemi	-10.2553
lıdır	-10.2554
▁anne	-10.2557
▁Komutanlığı	-10.256
▁belirtti	-10.2563
▁art	-10.2574
▁Üniversite	-10.2575
mir	-10.2575
▁tasarımı	-10.2576
▁Ebu	-10.2579
▁Radyo	-10.258
log	-10.2586
▁yorum	-10.2588
▁Kon	-10.2596
▁Dönemi	-10.2604
▁Dan	-10.2608
lanarak	-10.2618
▁kış	-10.262
▁belge	-10.262
dia	-10.2622
▁olumsuz	-10.2622
▁konuda	-10.2631
▁yayımladı	-10.2635
▁Danimarka	-10.2635
▁oluşturmaktadır	-10.2639
▁öğretmen	-10.2641
▁alınmıştır	-10.2642
▁des	-10.2643
ire	-10.2644
▁katkıda	-10.2648
▁köle	-10.2648
rt	-10.2649
▁başarısız	-10.265
▁baskın	-10.2655
▁devleti	-10.2657
▁derecede	-10.2658
▁Dergisi	-10.2663
▁kur	-10.267
▁Records	-10.2671
▁Mahallesi	-10.2673
▁filmin	-10.2673
▁çocukları	-10.2677
▁Murad	-10.2678
acağı	-10.2679
▁muhtemelen	-10.2683
▁iklimi	-10.2683
▁Jackson	-10.2685
▁vücut	-10.2687
▁Milli	-10.2691
▁filmde	-10.2692
rek	-10.2697
▁işleme	-10.2699
▁sıklıkla	-10.2704
▁dersleri	-10.2704
▁davet	-10.2705
▁üstünde	-10.2712
▁dedi	-10.2713
▁gövde	-10.2716
ud	-10.2717
▁Bağdat	-10.2722
ray	-10.2724
▁hangi	-10.273
▁Oğuz	-10.2731
top	-10.2732
▁Temel	-10.2733
mu	-10.2733
▁kültürü	-10.2734
▁bundan	-10.2738
zer	-10.2747
▁Ah	-10.2752
▁#	-10.2753
▁müdahale	-10.2755
▁Angeles	-10.2756
▁değerli	-10.2756
▁Ker	-10.2766
▁And	-10.2768
▁köşe	-10.2768
е	-10.277
ras	-10.2772
▁açı	-10.2773
▁sahipti	-10.2775
▁kaldığı	-10.2777
ec	-10.2777
▁del	-10.2784
▁tartışma	-10.2786
▁Video	-10.2787
▁ortasında	-10.2788
Pa	-10.2788
▁giydi	-10.2789
▁Onun	-10.2791
▁kaynakları	-10.2796
▁yazma	-10.2799
▁kullanma	-10.2799
▁öncesinde	-10.2801
▁süreci	-10.281
▁Mel	-10.2811
▁Der	-10.2813
ō	-10.2817
▁başarısı	-10.2819
▁me	-10.282
ó	-10.2824
▁Savaşları	-10.2824
▁sınırlı	-10.2831
▁bölgesinin	-10.2835
▁ederken	-10.2838
▁yaptıkları	-10.2847
ılmış	-10.2849
▁geçirdiği	-10.285
ung	-10.285
▁Far	-10.2855
aç	-10.2855
▁yükseldi	-10.2857
▁kendilerine	-10.2857
▁kaynaklar	-10.286
tum	-10.2862
▁Turizm	-10.2864
▁Türkçeye	-10.2867
▁küresel	-10.287
▁değişikliği	-10.287
▁alternatif	-10.2872
Holstein	-10.2883
ıyla	-10.289
▁Ses	-10.2891
▁kurduğu	-10.2895
▁par	-10.2897
▁Kendi	-10.2899
Ne	-10.29
mız	-10.29
▁dergisi	-10.2903
▁kart	-10.2906
▁cevap	-10.2907
▁attığı	-10.2907
▁Güvenlik	-10.2911
▁kendilerini	-10.2913
▁uyar	-10.2916
▁dar	-10.2918
▁Yolu	-10.292
▁yasal	-10.292
bet	-10.2921
▁Mahallenin	-10.2921
▁deprem	-10.2924
▁Maria	-10.2925
▁getiren	-10.2926
til	-10.2928
▁tasvir	-10.293
▁İklim	-10.293
ium	-10.293
▁İlçede	-10.2931
▁sonu	-10.2932
ach	-10.2933
rma	-10.2935
▁mezar	-10.2938
▁gösterdiği	-10.2944
▁fikir	-10.2944
▁Mah	-10.2944
sun	-10.2945
ib	-10.2947
▁kısım	-10.2948
▁Pri	-10.2949
▁akıl	-10.295
▁yalnız	-10.2956
▁Konu	-10.2964
▁Ger	-10.2966
▁Bosna	-10.2966
▁yaşamış	-10.2971
▁fizik	-10.2973
▁sırasıyla	-10.2973
çık	-10.2974
▁karakteri	-10.2976
▁ilişkisi	-10.2985
▁elektron	-10.2986
▁galibiyet	-10.2987
stan	-10.2994
idir	-10.2995
▁bölgeler	-10.2996
▁Yayın	-10.2996
ağa	-10.2997
▁saray	-10.2998
ich	-10.3
▁yürütülmektedir	-10.3
gerçekleştirilen	-10.3003
ladığı	-10.3005
mel	-10.3005
▁Val	-10.301
ow	-10.302
▁Edward	-10.3024
dal	-10.3027
ice	-10.3036
▁test	-10.3036
hr	-10.3044
▁İlçenin	-10.3045
leştirme	-10.3046
▁hidrojen	-10.3047
mı	-10.305
▁Et	-10.3051
▁Saray	-10.3058
▁beyin	-10.3061
▁Demokrat	-10.3061
▁tanınan	-10.3064
evi	-10.3064
▁zafer	-10.3067
▁bağımsızlığını	-10.307
▁("	-10.3072
▁numaralı	-10.3073
▁Bulgar	-10.3075
▁bölgelerinde	-10.3076
▁yerinde	-10.3082
▁kal	-10.3083
▁Hoca	-10.3085
▁Şen	-10.3085
üz	-10.3086
▁tarafında	-10.3087
masına	-10.3088
▁hasar	-10.3091
▁olmaya	-10.3093
▁ikili	-10.3094
ket	-10.31
iç	-10.3101
▁özellikler	-10.3106
▁fi	-10.3107
▁İşçi	-10.3112
▁ekibi	-10.3112
▁Pop	-10.3115
▁Okyanusu	-10.3115
▁mavi	-10.3119
▁bölümleri	-10.3122
▁kısmını	-10.3125
▁Sir	-10.3127
▁araba	-10.3127
tus	-10.3129
▁Bel	-10.3131
▁Okul	-10.3134
▁geliştirme	-10.3136
▁bomba	-10.3137
▁Galeri	-10.314
ledi	-10.314
▁protein	-10.3141
▁alanlarda	-10.3145
▁edebiyatı	-10.3149
ria	-10.3149
▁lider	-10.3156
▁aktris	-10.3158
bas	-10.3164
▁Manchester	-10.3167
dikleri	-10.3167
pınar	-10.3172
▁romanları	-10.3173
rin	-10.3173
▁Kütahya	-10.3174
▁coğrafi	-10.3174
▁hat	-10.3176
pan	-10.3177
▁Mon	-10.3177
▁ikiye	-10.3177
eği	-10.3187
▁göstermiştir	-10.3192
▁http	-10.3194
▁olayları	-10.3195
▁sorunları	-10.3198
▁harfi	-10.3199
bat	-10.3201
▁Kim	-10.3201
▁Anayasa	-10.3204
▁Ham	-10.3207
▁Üst	-10.3215
▁makine	-10.3216
ity	-10.3217
▁Nur	-10.3219
▁Farsça	-10.3223
▁sesi	-10.3225
▁ailesinin	-10.3226
▁Üniversitesinde	-10.3226
nd	-10.323
▁Şiir	-10.3231
▁kurum	-10.3231
▁tanesi	-10.3231
▁biçimi	-10.3233
kte	-10.3237
▁Wa	-10.3239
▁stadyum	-10.3239
▁cumhuriyet	-10.324
▁hayatta	-10.324
▁basınç	-10.3245
▁korku	-10.3246
▁açıklama	-10.3249
▁karbon	-10.325
▁boş	-10.3251
▁ağırlık	-10.3254
▁terimleri	-10.3254
▁korumak	-10.3255
▁alması	-10.3271
▁görüşü	-10.3276
▁silahlı	-10.3277
▁Şampiyon	-10.3278
ılır	-10.3278
mışlardır	-10.3279
▁yangın	-10.328
š	-10.3286
▁şirketler	-10.3286
▁bünyesinde	-10.3287
tığı	-10.3295
▁yüksekliği	-10.3302
▁analiz	-10.3304
▁sergi	-10.3304
▁muharebe	-10.3306
ju	-10.3314
▁çağdaş	-10.3314
▁satış	-10.3316
▁ilçesinde	-10.3318
▁Kulüp	-10.3322
art	-10.3328
bre	-10.3329
lek	-10.3337
hisar	-10.3338
▁www	-10.3338
▁Şam	-10.3341
▁Zonguldak	-10.3343
▁hükümdarı	-10.3348
▁arasındadır	-10.3353
diğini	-10.3354
▁Q	-10.3356
▁seçimleri	-10.3356
▁Grand	-10.3361
▁listesinde	-10.3362
”,	-10.337
▁gerçekleşti	-10.3372
ite	-10.3375
▁getirir	-10.3377
▁düzen	-10.3378
▁uzunluğu	-10.3378
▁Alp	-10.3381
sis	-10.3383
▁Adalet	-10.3385
▁öğrencisi	-10.3386
olog	-10.3387
▁harf	-10.3387
▁hapis	-10.3388
▁CD	-10.3396
▁Fizik	-10.3399
▁Hem	-10.34
süz	-10.3402
▁Avusturyalı	-10.3405
▁başı	-10.3406
▁kulüpleri	-10.3413
abilen	-10.3413
▁kazan	-10.3413
▁teori	-10.3415
▁telefon	-10.3415
▁işletim	-10.3417
▁okulu	-10.342
▁Kurt	-10.3422
▁dosya	-10.3427
▁oranda	-10.3432
▁▁▁▁▁▁▁▁	-10.3432
▁basketbol	-10.3433
▁fotoğraf	-10.3434
▁denge	-10.3435
gün	-10.3436
▁Seferi	-10.3436
Türkiye	-10.344
▁Alan	-10.3441
▁Rumeli	-10.3442
▁toplumun	-10.3448
kara	-10.3448
▁Gece	-10.345
▁gelecek	-10.3454
▁olanak	-10.3459
▁sıkı	-10.3463
▁sayfa	-10.3463
▁yay	-10.3465
▁dans	-10.3469
▁seyirci	-10.3469
▁padişah	-10.347
▁öykü	-10.3478
▁Show	-10.348
▁kontrolü	-10.3482
▁düşen	-10.3485
▁ed	-10.3486
est	-10.349
des	-10.3494
Di	-10.3495
▁boy	-10.3496
muştur	-10.3497
uri	-10.3498
▁arkadaşları	-10.3502
▁İslâm	-10.3503
los	-10.3504
▁yasak	-10.3506
gor	-10.3507
▁gazetesi	-10.3509
▁general	-10.3512
▁birbirinden	-10.3517
▁gıda	-10.3517
▁Koç	-10.3518
▁yaşlı	-10.3527
▁genetik	-10.3545
▁bağlandı	-10.3546
MÖ	-10.3555
&	-10.3559
▁gösteri	-10.3559
tma	-10.356
▁kardeş	-10.3561
▁hal	-10.3571
▁Kastamonu	-10.3573
▁süreç	-10.3574
▁başlanmıştır	-10.3576
▁iktidar	-10.3578
▁görür	-10.358
▁kıta	-10.358
mut	-10.3581
▁SSCB	-10.3583
▁grubunun	-10.3584
▁Red	-10.3586
▁çalışmalarına	-10.3596
▁kazı	-10.36
▁Körfezi	-10.3603
▁şimdi	-10.3609
▁savaşa	-10.361
▁toplama	-10.3614
▁şirketleri	-10.3621
▁hâlâ	-10.3623
▁liste	-10.3628
▁katıldığı	-10.3636
▁duvar	-10.3639
▁Karşı	-10.364
bus	-10.3641
▁kaydı	-10.3642
▁doktor	-10.3643
▁kişilerin	-10.3647
▁albümün	-10.3647
▁sözü	-10.3647
▁kere	-10.3649
ism	-10.3654
▁okuma	-10.3655
▁Microsoft	-10.3656
▁Koca	-10.3658
▁opera	-10.3659
▁olumlu	-10.3665
▁anayasa	-10.3667
▁yukarı	-10.3667
▁intihar	-10.3673
▁Kale	-10.3674
▁görme	-10.3676
larındaki	-10.3677
makta	-10.368
▁gerçekleştiril	-10.3681
"|	-10.3681
▁Che	-10.3682
▁taşıma	-10.3685
▁Fo	-10.3686
▁dev	-10.3687
Bo	-10.3689
sidir	-10.3697
▁Anne	-10.3701
▁araştırmalar	-10.3703
▁olmaktadır	-10.3708
▁taşındı	-10.371
Na	-10.3712
▁felsefesi	-10.3712
▁müze	-10.3713
zar	-10.3715
▁Tarım	-10.3719
▁Fu	-10.3725
▁kalmış	-10.3729
op	-10.3731
▁Moğol	-10.3733
▁yüzyıldan	-10.3736
masını	-10.3739
▁gerilim	-10.3746
ama	-10.3752
landığı	-10.3752
age	-10.3753
lamıştır	-10.3756
iyye	-10.3757
▁komutanı	-10.3758
▁kulübü	-10.3762
▁aşı	-10.3764
▁be	-10.3765
▁Mahmut	-10.3766
çu	-10.3768
dik	-10.377
lip	-10.3772
port	-10.3774
▁tipik	-10.3776
low	-10.3776
▁sağlamıştır	-10.3776
▁hayatına	-10.3778
▁Basketbol	-10.3783
▁rapor	-10.3787
▁Bilgisayar	-10.379
▁fikri	-10.3793
▁bucak	-10.3793
▁askerleri	-10.3793
▁Sim	-10.3795
▁yardımıyla	-10.3796
▁bölgeleri	-10.3798
▁arasına	-10.3801
▁tatlı	-10.3802
▁kalıntıları	-10.3804
▁topraklarına	-10.381
eddin	-10.3811
▁hep	-10.3812
▁Kuş	-10.3812
▁etkiler	-10.3812
▁konum	-10.3819
▁süt	-10.3821
gı	-10.3821
▁yılların	-10.3822
▁yağmur	-10.3826
▁olacaktır	-10.3833
▁üstün	-10.3835
öz	-10.3843
lendirme	-10.3846
▁Sezon	-10.3847
▁is	-10.3849
▁Hall	-10.3852
▁Şehrin	-10.3852
ıldı	-10.3858
▁kullandı	-10.3859
▁Ed	-10.3863
▁konuşan	-10.3863
▁gönderildi	-10.3867
tti	-10.3867
▁plak	-10.3869
tek	-10.3869
▁Demokratik	-10.3871
▁olayı	-10.3873
tha	-10.3875
▁şarkılar	-10.388
▁Sadece	-10.388
▁şampiyon	-10.389
▁ar	-10.3893
▁şarkıcılar	-10.3896
ring	-10.3902
▁çatışma	-10.3912
▁kentinde	-10.3913
▁uydu	-10.3914
▁Av	-10.3919
▁Ölüm	-10.393
▁özellik	-10.393
TV	-10.3932
ılması	-10.3933
▁Yarımadası	-10.3934
▁kristal	-10.3934
▁biçim	-10.3934
▁teşkil	-10.3936
▁kentin	-10.3939
▁Dili	-10.3943
▁Savunma	-10.3947
▁Kol	-10.3951
▁Mc	-10.3952
▁mağlup	-10.3954
AP	-10.3954
▁binlerce	-10.3955
▁cephe	-10.3957
likleri	-10.3958
▁şampiyonluğu	-10.396
▁Makedonya	-10.3961
▁hane	-10.3962
▁CHP	-10.3963
▁İsveçli	-10.3964
Te	-10.3964
▁unvanını	-10.3966
▁olmasını	-10.3966
▁hepsi	-10.397
▁Başka	-10.3979
şan	-10.3984
▁Komitesi	-10.3988
▁Yarışması	-10.3989
▁görevine	-10.399
▁matematik	-10.3993
▁zorunlu	-10.3997
ari	-10.3999
▁cilt	-10.3999
▁değişim	-10.4
▁eşlik	-10.4005
▁bol	-10.4006
▁Elektrik	-10.4007
ef	-10.4007
▁Tro	-10.4008
▁başlattı	-10.4011
▁duruma	-10.4012
▁kalabalık	-10.4014
▁kullanılmaya	-10.4017
▁Ce	-10.4026
▁isimleri	-10.4035
▁King	-10.4037
leyici	-10.4039
▁Büyükşehir	-10.4041
ight	-10.4048
rik	-10.4056
▁sözleri	-10.4057
▁dayanır	-10.4058
text	-10.4059
▁Kongresi	-10.406
ktaydı	-10.4065
▁Sırbistan	-10.4066
▁güçleri	-10.4071
▁tehlike	-10.4071
▁diş	-10.4071
▁Haber	-10.4083
▁hazırlık	-10.4085
way	-10.4089
▁yazmıştır	-10.4089
▁ekran	-10.4092
▁Muğla	-10.4093
▁mahkûm	-10.4093
▁İz	-10.4093
zu	-10.4093
▁Pre	-10.4098
▁kuruluşu	-10.4098
ensis	-10.4098
▁çekirdek	-10.4101
üm	-10.4102
▁Vadisi	-10.4102
▁olası	-10.4106
▁rengi	-10.4112
lerindeki	-10.4113
▁sosyalist	-10.4113
ino	-10.4114
▁Sur	-10.4115
▁oynayan	-10.4119
▁deneme	-10.4121
▁meclis	-10.4124
▁Parkı	-10.4129
▁başkanlık	-10.4133
▁gönderdi	-10.4134
▁çağ	-10.4135
▁birim	-10.414
▁Mat	-10.4142
▁ettiğini	-10.4152
amaz	-10.4156
▁kurucu	-10.4157
▁kaleme	-10.4157
▁Tal	-10.416
▁projesi	-10.4162
Ba	-10.4165
▁Britanyalı	-10.4165
▁hâlen	-10.4165
▁gereği	-10.4171
▁Friedrich	-10.418
▁yaklaşım	-10.4181
▁Örgütü	-10.4182
Mi	-10.4184
▁Ala	-10.4189
▁Kom	-10.4191
dim	-10.4191
▁gen	-10.4192
▁Bunu	-10.4193
▁inanç	-10.4207
▁Bayezid	-10.4207
gil	-10.4208
▁demokrasi	-10.4211
▁imzaladı	-10.4224
▁Solanum	-10.4225
▁ödeme	-10.4225
ören	-10.4228
mas	-10.4229
hir	-10.423
▁kanal	-10.4231
▁düzenleme	-10.4233
▁saldırısı	-10.4233
▁tekniği	-10.4234
▁vererek	-10.4234
tim	-10.4236
▁komutasındaki	-10.4236
▁şarkıları	-10.4242
▁Afganistan	-10.4248
▁Millet	-10.4248
▁Yani	-10.4249
▁sağlam	-10.4252
▁per	-10.4254
▁başkanlığı	-10.4256
▁harita	-10.4259
▁eserinde	-10.4263
▁suyun	-10.4265
▁baba	-10.4276
▁komedi	-10.4278
▁İm	-10.4278
▁am	-10.428
▁Başbakan	-10.428
yet	-10.4287
üs	-10.4288
▁Hol	-10.4296
▁ulaşan	-10.4297
▁karakterler	-10.4298
▁üste	-10.4299
▁uçuş	-10.43
▁ölen	-10.4301
▁Yönetmen	-10.4302
name	-10.4302
▁sınırı	-10.4303
lanabilir	-10.4304
▁şiddetli	-10.4305
▁akademisyen	-10.4306
▁bak	-10.4306
ble	-10.4308
▁Sami	-10.4309
▁kanalı	-10.4311
▁askerler	-10.4318
▁ayrılmıştır	-10.4325
leşmiş	-10.4328
▁birinin	-10.4329
▁dönen	-10.4339
▁işgali	-10.434
▁hariç	-10.4341
▁Göl	-10.4341
▁evinde	-10.4343
ilen	-10.4344
cer	-10.4353
▁kullanıldığı	-10.4353
▁birden	-10.4354
▁metin	-10.4357
▁dalında	-10.4357
ting	-10.4359
rü	-10.4361
▁amaç	-10.4362
ola	-10.4364
▁halkının	-10.4365
▁versiyonu	-10.4366
muz	-10.4367
▁istediği	-10.4367
▁yerler	-10.4374
▁kitaplar	-10.4375
▁Kat	-10.4376
▁değişiklikler	-10.4386
▁isteği	-10.4386
syon	-10.4386
▁Kanun	-10.4387
▁sadrazam	-10.4391
▁meslek	-10.4393
▁dokuz	-10.4395
▁döner	-10.4396
▁Bre	-10.4406
yev	-10.4409
oid	-10.441
▁anlamında	-10.4412
▁uygulaması	-10.4413
▁albümünü	-10.4416
▁mahkeme	-10.4418
▁geçerli	-10.4421
▁nehir	-10.4421
▁anılır	-10.4423
▁Şili	-10.4424
▁toplu	-10.4425
ât	-10.4432
▁başkanları	-10.4432
▁ortam	-10.4439
▁yaşama	-10.4439
▁ödülünü	-10.4439
▁orkestra	-10.444
▁vali	-10.4456
▁Hayat	-10.4458
▁oran	-10.446
▁doğrultusunda	-10.4467
▁adayı	-10.4468
▁temiz	-10.4469
gg	-10.4469
imi	-10.4472
▁Komisyonu	-10.4477
▁Dört	-10.4479
▁ölçü	-10.4484
▁kolu	-10.4484
▁olsun	-10.4485
▁uyum	-10.4486
▁belediyeleri	-10.449
▁Çayı	-10.4492
▁belirtir	-10.4497
▁tanınmış	-10.4501
▁unvanı	-10.4501
▁ölmüştür	-10.4504
▁turnuva	-10.4504
▁Ze	-10.4505
ori	-10.4506
▁gelişen	-10.4506
▁seçilen	-10.4507
▁büyüme	-10.451
▁yirmi	-10.4512
▁Vol	-10.4514
▁başlayarak	-10.4514
▁Lübnan	-10.4515
▁Sel	-10.4517
▁Yüksekokulu	-10.4517
▁Yaklaşık	-10.4521
▁yönetiminde	-10.4524
▁Askeri	-10.4526
▁düzeyde	-10.453
▁sözcük	-10.4532
▁Die	-10.4534
▁Ceza	-10.4535
▁Aile	-10.4539
▁balığı	-10.4539
▁işi	-10.4543
▁kuvveti	-10.4543
▁kemik	-10.4553
▁Amerikalılar	-10.4553
ag	-10.4553
▁Kupa	-10.4553
▁Arslan	-10.4558
▁Tel	-10.456
ms	-10.456
▁parçaları	-10.4561
▁tamamı	-10.4563
▁bakan	-10.4564
▁alınarak	-10.4569
▁ayar	-10.457
▁Zi	-10.4574
▁adamları	-10.4574
▁gurbetçiler	-10.4578
▁imparator	-10.4578
▁çıkarılan	-10.4579
▁Felsefe	-10.4581
▁çatışmalar	-10.4581
▁maden	-10.4586
▁ilaç	-10.4591
▁Arabistan	-10.4595
▁Cu	-10.4605
öl	-10.4606
▁kaydetti	-10.4607
▁avcı	-10.4614
▁Gür	-10.4616
▁Albert	-10.462
▁Jack	-10.4621
▁taraf	-10.4622
▁karakterleri	-10.4623
▁yapım	-10.4623
▁şehirde	-10.4626
dis	-10.4627
ilmesi	-10.4627
▁sezonda	-10.4629
▁getirdiği	-10.4633
▁bağımsızlık	-10.4634
▁Mersin	-10.4636
▁inceleme	-10.4638
▁çeviri	-10.4639
▁işletme	-10.464
▁Kir	-10.464
▁Babil	-10.4641
▁Grammy	-10.4641
▁Şehzade	-10.4641
▁edilerek	-10.4641
▁Manisa	-10.4642
▁Toprak	-10.4651
▁beşinci	-10.4651
▁sonraları	-10.4654
▁oluşturulan	-10.4662
▁seyahat	-10.4663
▁Metin	-10.4668
у	-10.4668
▁çıkışı	-10.4669
ılarak	-10.468
ep	-10.4681
ilir	-10.4685
ebilecek	-10.4688
ney	-10.4689
▁görüldü	-10.4689
▁bölümünü	-10.4695
▁seviye	-10.4698
▁yarar	-10.47
ón	-10.47
▁ters	-10.4701
▁kurban	-10.4702
▁gücünü	-10.4703
▁verilmesi	-10.4704
▁kıyısında	-10.4706
ile	-10.4707
▁binası	-10.4707
▁Tre	-10.4709
▁örnekleri	-10.4709
▁cinsiyet	-10.471
pro	-10.471
▁tabi	-10.471
▁Doğal	-10.4712
▁komşu	-10.4714
▁kimse	-10.472
ben	-10.4722
▁SS	-10.4724
▁say	-10.4725
▁kadınlar	-10.473
dıkları	-10.4734
▁Dışişleri	-10.4734
▁evlilik	-10.4736
ous	-10.4739
▁biçiminde	-10.4741
▁sanatı	-10.4743
▁senesinde	-10.4745
▁Konusu	-10.4747
dol	-10.4748
one	-10.475
▁yöntemleri	-10.4751
▁$	-10.4753
▁beste	-10.4754
▁katkı	-10.4754
▁Bon	-10.4756
hen	-10.4765
▁Aksu	-10.4766
▁https	-10.4768
▁Zo	-10.477
▁siyasal	-10.4771
▁Stalin	-10.4773
dağ	-10.4776
▁Smith	-10.4779
▁kadro	-10.4779
▁valisi	-10.478
▁İskoç	-10.4787
yü	-10.4789
▁bal	-10.4794
▁aranan	-10.4801
▁verilerine	-10.4803
▁Boğazı	-10.4807
▁rekabet	-10.4808
▁karşılığında	-10.4809
▁imparatorluk	-10.481
▁ağız	-10.4811
vet	-10.4815
▁Gemi	-10.4819
▁tanıştı	-10.4823
laş	-10.4824
ıdır	-10.4826
▁Ateş	-10.4828
▁şeyi	-10.4828
▁yayınlar	-10.483
▁pi	-10.483
kur	-10.483
set	-10.4834
cy	-10.4836
▁bilgileri	-10.4837
▁Kas	-10.4838
vel	-10.484
▁mikro	-10.4844
▁girişimi	-10.4848
▁türler	-10.4848
▁isimler	-10.4849
▁yönetici	-10.485
alı	-10.485
of	-10.4852
▁bulun	-10.4857
ica	-10.4858
▁çıkarak	-10.4863
▁Gerçek	-10.4863
▁baskısı	-10.4866
▁ölümüne	-10.4867
▁Zen	-10.4867
stra	-10.4868
sy	-10.4869
▁Music	-10.4871
bol	-10.4872
▁vermiş	-10.4872
▁maddi	-10.4874
▁ekonomisi	-10.4876
▁Işık	-10.4878
▁kapısı	-10.4882
▁diplomat	-10.4885
▁has	-10.4893
▁İnönü	-10.4894
▁klip	-10.4894
bek	-10.4895
mekte	-10.4896
▁May	-10.4897
kul	-10.49
▁görevinden	-10.4902
▁günde	-10.4902
cal	-10.4902
▁karşıtı	-10.4903
ano	-10.4904
▁Kazakistan	-10.4909
▁oksijen	-10.491
▁ağırlığı	-10.491
for	-10.4913
▁gerekçesiyle	-10.4914
▁Oxford	-10.4916
aş	-10.4921
▁temas	-10.4922
▁Polonyalı	-10.4924
▁miktar	-10.4925
▁Ac	-10.4927
▁Gel	-10.4931
▁Vietnam	-10.4934
Li	-10.4936
▁harekete	-10.4937
▁Üzerine	-10.4941
▁ayrılarak	-10.4941
sak	-10.4944
▁konuş	-10.4945
▁ayrılan	-10.4945
▁zemin	-10.4947
sion	-10.4948
ili	-10.4949
▁dergi	-10.495
aklı	-10.4951
▁finalde	-10.4953
Kara	-10.4954
▁gelebilir	-10.4955
▁olacağı	-10.4957
▁bayrağı	-10.4958
▁oynamıştır	-10.4961
▁Cal	-10.4962
▁alfabesi	-10.4962
▁Bor	-10.4962
▁Kraliyet	-10.4963
▁katılma	-10.4965
▁çıkardığı	-10.4965
▁solo	-10.4969
▁kıl	-10.497
▁Çerkes	-10.497
▁kazandığı	-10.4972
▁çalışmalarını	-10.4974
▁Kanal	-10.4975
▁Pakistan	-10.4977
▁inşaat	-10.4982
dra	-10.4983
line	-10.4985
▁çeken	-10.4994
▁dahi	-10.4994
▁Gazetesi	-10.4995
▁dönme	-10.4995
▁kuşatma	-10.4995
▁Ulu	-10.4999
▁Veli	-10.5001
ort	-10.5004
▁Sonraki	-10.5006
yn	-10.5008
liğine	-10.5009
▁hizmetleri	-10.5016
▁Eyaleti	-10.5016
▁sak	-10.5016
▁ağı	-10.5016
▁Kılıç	-10.5017
ens	-10.5018
▁yıldır	-10.502
▁▁▁▁▁▁▁▁▁▁▁▁▁▁▁▁	-10.5022
bri	-10.5022
▁Nar	-10.5023
▁gelişmeler	-10.5024
örneğin	-10.5025
▁Bülent	-10.5027
▁yanıt	-10.5027
Ra	-10.5028
▁Dünyanın	-10.5033
▁başladılar	-10.5036
▁piyade	-10.5037
▁hizmete	-10.5042
eceğini	-10.5042
▁NATO	-10.5046
▁kök	-10.5046
▁Erdoğan	-10.5047
▁Yara	-10.505
▁Edebiyatı	-10.505
▁resmen	-10.5054
▁ailenin	-10.5055
▁şampiyonu	-10.5059
▁olmasıdır	-10.5059
▁Mas	-10.506
▁gezi	-10.5065
▁araçları	-10.5065
ys	-10.5067
bal	-10.5068
▁besin	-10.5069
α	-10.507
▁tel	-10.5073
hin	-10.5074
▁hücreler	-10.5078
▁istasyonu	-10.5084
laması	-10.5087
▁Au	-10.5089
▁çıkması	-10.5089
▁Anthurium	-10.5094
▁Resmî	-10.5094
▁Uşak	-10.5095
sın	-10.5095
▁arkeolojik	-10.5099
▁buraya	-10.5102
▁alın	-10.5103
▁Cemal	-10.5104
▁Santa	-10.5107
▁yörünge	-10.5107
▁verimli	-10.5107
▁suikast	-10.5113
▁Ruslar	-10.5118
▁yüzyıla	-10.5118
ebilen	-10.5119
▁yoğunluğu	-10.5122
▁dilinde	-10.5123
▁with	-10.5124
▁kaybı	-10.5127
▁Ziya	-10.5129
eb	-10.513
▁Sadrazam	-10.5131
▁ilişkili	-10.5131
▁önemlidir	-10.5131
▁pul	-10.5131
▁emir	-10.5132
▁yarışma	-10.5133
▁terim	-10.5135
gun	-10.5135
▁Has	-10.5135
▁çıkma	-10.514
▁sap	-10.5141
▁Kariyeri	-10.5143
nis	-10.5145
▁bulunma	-10.5147
▁idaresi	-10.5149
▁anlamlar	-10.5153
▁önemi	-10.5153
▁topu	-10.5153
▁alıp	-10.5156
cia	-10.516
▁Göz	-10.5171
▁sürümü	-10.5174
▁Lee	-10.5177
▁Boy	-10.5178
▁alana	-10.5181
rken	-10.5181
▁hücum	-10.5182
▁özgün	-10.5184
▁tanımı	-10.5185
Q	-10.5185
▁Ölümü	-10.5187
▁farkı	-10.5188
▁Küre	-10.5189
▁çalış	-10.5193
▁Orman	-10.5194
‘	-10.5196
▁davranış	-10.5197
▁sonuçlar	-10.5204
▁günümüz	-10.5207
nan	-10.5208
▁mah	-10.5209
▁takımına	-10.5211
▁numara	-10.5215
▁Öte	-10.5219
▁anlatır	-10.5222
▁vi	-10.5223
ecektir	-10.5224
▁Op	-10.5224
▁olmalıdır	-10.5225
▁Abdülhamid	-10.5229
rum	-10.5229
▁American	-10.5229
▁vs	-10.523
▁İmam	-10.5231
▁girer	-10.5236
▁İs	-10.5238
▁belir	-10.5239
▁Euro	-10.5241
▁değişen	-10.5245
▁Yerel	-10.5246
▁sürü	-10.5246
▁Müslümanlar	-10.5246
▁karanlık	-10.5251
▁Panzer	-10.5251
▁bulunmaktaydı	-10.5252
▁mitolojisi	-10.5255
kle	-10.5255
▁gelmesi	-10.5265
▁özgür	-10.5267
▁Wilhelm	-10.5269
▁mekanik	-10.5269
▁boz	-10.5271
▁değin	-10.5272
gue	-10.5273
kent	-10.5273
▁Yakın	-10.5278
▁soru	-10.5285
▁Altı	-10.5286
▁Yo	-10.5286
▁savaşta	-10.5286
▁hastane	-10.529
▁fe	-10.5292
▁kare	-10.5292
▁yarım	-10.5295
▁hayal	-10.5297
▁ülkelerin	-10.5297
▁açıkça	-10.5298
▁Gri	-10.53
▁Başbakanı	-10.5301
▁aylık	-10.5301
rem	-10.5302
▁Geç	-10.5303
▁değişken	-10.5306
▁Kahramanmaraş	-10.5309
*	-10.531
▁olmuştu	-10.5312
▁anlatan	-10.5312
▁Balkanlar	-10.5313
▁aittir	-10.5316
▁Federal	-10.5329
▁Yayınevi	-10.533
▁sorunlar	-10.533
cho	-10.533
OS	-10.5333
bilim	-10.5336
▁Denizli	-10.5336
▁ilerleme	-10.534
▁Kardeş	-10.5343
▁olmaması	-10.5343
▁göreve	-10.5346
▁eylem	-10.5347
▁okyanus	-10.5349
▁kupa	-10.5351
▁avukat	-10.5353
▁National	-10.5356
▁dışına	-10.5356
▁depo	-10.5362
nar	-10.5363
He	-10.537
▁Evren	-10.5373
ier	-10.5373
▁sat	-10.5375
ğını	-10.5375
ction	-10.5378
▁Kars	-10.5379
▁trans	-10.5379
▁kopya	-10.5383
▁Yazı	-10.5385
▁bitkiler	-10.5386
▁geçme	-10.5386
tık	-10.5386
▁işbirliği	-10.5389
▁bilgisi	-10.5389
▁olmaları	-10.5392
▁Live	-10.5392
▁For	-10.5393
▁geçtiği	-10.5394
lit	-10.5396
ted	-10.5397
▁denk	-10.5398
▁Vo	-10.54
▁yazıları	-10.54
▁yaşar	-10.5401
▁Motor	-10.5403
▁Toplam	-10.5403
▁arkasında	-10.5405
▁Pas	-10.5406
▁köpek	-10.5408
▁adları	-10.5408
▁Yerleşim	-10.5409
▁görülmüştür	-10.5409
▁Em	-10.5409
▁Erken	-10.541
hil	-10.5411
▁Çeşitli	-10.5419
Türkçe	-10.5423
mit	-10.5428
▁Sü	-10.543
▁eleştiri	-10.543
▁kuruluşlar	-10.5434
▁Ash	-10.5434
▁sonsuz	-10.5435
▁reklam	-10.5437
▁yön	-10.5437
http	-10.5437
о	-10.544
▁Bağ	-10.5445
▁teknolojisi	-10.5448
с	-10.545
▁rahat	-10.5452
▁inan	-10.5452
▁Metal	-10.5454
▁ideal	-10.5457
▁from	-10.5459
▁kuramı	-10.5461
sky	-10.5462
Ta	-10.547
▁işleri	-10.5472
mesine	-10.5474
▁edecek	-10.5479
▁tanrısı	-10.5481
▁çekim	-10.5482
▁birini	-10.5482
▁kuşlar	-10.5485
▁daire	-10.5487
kla	-10.5487
SA	-10.549
▁mı	-10.5491
▁olursa	-10.5495
af	-10.5495
▁makale	-10.5496
▁etkisiyle	-10.5498
▁Hikmet	-10.5499
▁başlangıcı	-10.5501
▁Atlas	-10.5501
▁bulunuyordu	-10.5502
tri	-10.5503
hl	-10.5505
mos	-10.5508
▁Trans	-10.5509
▁görülebilir	-10.5509
zon	-10.5509
▁karşılıklı	-10.5509
leş	-10.5516
▁bölgedeki	-10.5517
emi	-10.5522
▁sorunu	-10.5522
▁Televizyon	-10.5524
ville	-10.5528
▁görünür	-10.5529
aceae	-10.553
▁konumu	-10.5531
▁süreli	-10.5531
▁Port	-10.5534
▁mensup	-10.5539
▁Daniel	-10.5539
▁sev	-10.554
▁tanımlanan	-10.554
▁Jan	-10.5545
▁kaba	-10.5547
oğulları	-10.5547
▁yarısında	-10.5554
▁varlık	-10.5559
▁ağırlıklı	-10.556
▁partiler	-10.5569
▁Buffy	-10.5569
▁Yarı	-10.557
▁akademik	-10.5576
▁net	-10.5577
mis	-10.5579
▁ayaklanma	-10.5582
▁ilham	-10.5584
▁Hans	-10.5587
con	-10.5588
kale	-10.559
▁enerjisi	-10.5591
▁Kış	-10.5594
leyerek	-10.5596
▁Kırmızı	-10.5598
istik	-10.56
▁poli	-10.5603
ora	-10.5603
▁...	-10.5604
▁ondan	-10.5606
▁tabaka	-10.5607
▁yasası	-10.5609
ata	-10.561
▁pay	-10.5612
▁endişe	-10.562
▁Kilise	-10.562
▁dönüştü	-10.5624
▁uygulanan	-10.5634
▁olmasından	-10.5638
▁alınır	-10.5639
şen	-10.5642
gra	-10.5644
▁gözü	-10.5644
mal	-10.5647
▁Les	-10.5649
▁mektup	-10.565
▁Kitabı	-10.5652
▁ihtiyacı	-10.5656
▁felsefi	-10.5661
▁Dede	-10.5663
Mu	-10.5664
▁yenilgi	-10.5667
▁dağılımı	-10.5668
▁potansiyel	-10.5671
▁kanser	-10.5682
▁dinî	-10.5683
▁tesisleri	-10.5684
▁içeriği	-10.5689
▁yapılma	-10.569
▁Siyasi	-10.5692
▁İletişim	-10.5696
▁ürünler	-10.5697
rd	-10.5698
▁Ağ	-10.5698
▁albümde	-10.5708
▁değişir	-10.571
▁aşk	-10.5711
Ya	-10.572
▁sayıları	-10.5721
▁çalıştığı	-10.5722
▁Premier	-10.5723
▁kapsayan	-10.5723
dî	-10.5723
▁geliştirilen	-10.5726
▁organ	-10.5731
▁muhalefet	-10.5733
cc	-10.5736
▁Yazar	-10.574
hip	-10.5742
▁ifadesi	-10.5746
▁Model	-10.5746
▁biyo	-10.5746
▁Hastanesi	-10.5748
▁Kazan	-10.5751
▁Çalışma	-10.5752
▁SK	-10.5752
▁düşünür	-10.5754
▁sokak	-10.5755
▁hali	-10.5758
lenerek	-10.5759
▁Deli	-10.5763
▁Cami	-10.5763
▁Ban	-10.5764
▁tarihten	-10.5767
lla	-10.5768
red	-10.5769
▁takımları	-10.5774
▁kalıcı	-10.5775
▁firması	-10.5779
▁Ailesi	-10.5782
müştür	-10.5782
▁gelişimi	-10.5784
▁Dağ	-10.5788
▁süreçte	-10.5789
AL	-10.5789
yak	-10.5793
▁bulur	-10.5797
▁alkol	-10.5797
▁Kongre	-10.5802
▁denen	-10.5803
sus	-10.5804
▁Gençlik	-10.5807
Mo	-10.5807
▁İmparatorluk	-10.5808
ix	-10.5814
▁Güneydoğu	-10.5816
▁Endülüs	-10.5816
▁futbolcudur	-10.582
dos	-10.5821
▁sıcaklığı	-10.5824
▁olabileceği	-10.5826
▁Askerî	-10.5827
▁bar	-10.5828
▁Önce	-10.5828
In	-10.5829
▁gelişim	-10.5832
▁Yugoslavya	-10.5833
▁kurulduğu	-10.5833
▁Hitit	-10.5835
▁rast	-10.5836
▁buzul	-10.5836
Rus	-10.5837
lığına	-10.5842
▁Tokat	-10.5844
▁sonlarına	-10.5847
▁sayılabilir	-10.5847
▁Boz	-10.5854
▁san	-10.5857
▁Williams	-10.5862
▁Saf	-10.5863
▁yapıları	-10.5867
▁planı	-10.5867
▁ata	-10.5872
▁Dev	-10.5876
▁girdiği	-10.5879
▁Kimya	-10.5881
▁türüdür	-10.5883
?"	-10.5884
sey	-10.5886
▁gelerek	-10.589
▁Pen	-10.5897
▁International	-10.59
▁Tour	-10.59
rus	-10.5916
▁tanımlar	-10.5919
▁anlayışı	-10.5919
▁po	-10.592
▁birlik	-10.592
likler	-10.5923
▁ortalarında	-10.5923
and	-10.5925
▁Mimar	-10.593
▁çıkışlı	-10.593
elli	-10.5931
▁getirilmiştir	-10.5933
▁karşıya	-10.5934
▁Gazete	-10.5935
▁co	-10.5938
▁alanlar	-10.5939
▁orduları	-10.594
ella	-10.5941
▁ibadet	-10.5941
▁Trakya	-10.5941
▁limanı	-10.5942
▁dalı	-10.5943
▁fayda	-10.5944
soy	-10.5951
▁döneminin	-10.5954
▁yaka	-10.5955
▁ilçenin	-10.5955
▁Ekonomik	-10.5957
▁başlıklı	-10.596
▁dönemlerinde	-10.5961
ero	-10.5963
▁Hat	-10.5967
▁Bin	-10.5968
▁Divan	-10.5968
▁kullanmak	-10.5969
▁üstlendi	-10.5972
▁Yüzyıl	-10.5973
▁kutup	-10.5976
▁Dizi	-10.5976
▁Onur	-10.5976
▁vermesi	-10.5979
▁Doğa	-10.5985
▁başlangıç	-10.5986
▁Türkçede	-10.5989
▁Hatta	-10.5989
▁oldular	-10.5992
▁basketbolcu	-10.5992
▁Arjantinli	-10.5993
sik	-10.5995
lamış	-10.5995
▁patlama	-10.5996
▁hacmi	-10.5997
▁kimya	-10.5998
▁Sin	-10.5999
▁Alexander	-10.5999
ther	-10.6001
▁Rusça	-10.6002
ışı	-10.6003
▁buradan	-10.6005
Do	-10.6005
▁açar	-10.6008
▁hücreleri	-10.6009
▁Yedi	-10.6012
raf	-10.6013
▁koydu	-10.6014
▁Final	-10.6015
▁mühendisliği	-10.6018
▁Türklerin	-10.6019
▁Arnavutluk	-10.6027
▁yüzölçümü	-10.6028
▁buhar	-10.6029
Ro	-10.6036
▁Örnek	-10.6039
▁sultan	-10.604
ali	-10.6045
▁süper	-10.6047
ы	-10.6047
▁tutar	-10.6047
▁Bak	-10.605
▁West	-10.6052
▁organı	-10.6052
mişlerdir	-10.6054
▁Selanik	-10.6058
SD	-10.6059
▁hâline	-10.6059
▁Mühendisliği	-10.6059
▁yolları	-10.606
▁faaliyetleri	-10.6063
▁yönde	-10.6065
ast	-10.6065
▁gösterim	-10.6069
▁Trabzonspor	-10.607
▁nesne	-10.6072
▁cinsi	-10.6074
▁so	-10.6076
hem	-10.6078
dem	-10.6079
▁beden	-10.6082
▁ettikleri	-10.6084
▁seçilmiştir	-10.6093
▁seslendirme	-10.6094
ılabilir	-10.6094
Mar	-10.6095
▁dönemine	-10.6097
▁kurumları	-10.6098
ska	-10.6099
▁ligde	-10.6099
▁toplanan	-10.6103
▁Dam	-10.6103
▁hayata	-10.6106
▁Kaba	-10.6108
▁Devletler	-10.6111
▁bulunmayan	-10.6113
Hersek	-10.6114
▁Tuna	-10.6115
▁Ele	-10.6119
▁Liga	-10.612
oku	-10.6129
▁Kam	-10.6131
▁kurma	-10.6131
▁devrim	-10.6133
ν	-10.6133
AN	-10.6138
▁Hay	-10.6138
▁Havalimanı	-10.6143
▁şeyin	-10.6146
▁Karaca	-10.6146
▁merkezleri	-10.6147
▁Dol	-10.6151
▁karşılığı	-10.6151
▁bo	-10.6151
▁tedavisi	-10.6152
laşmış	-10.6154
▁rakibi	-10.6154
'''	-10.6155
▁Kişi	-10.6158
▁asla	-10.6161
▁birey	-10.6163
▁anahtar	-10.6164
▁piyano	-10.6165
▁örtüsü	-10.6165
kel	-10.6168
▁saç	-10.6168
sto	-10.6168
tta	-10.6172
▁Dolayısıyla	-10.6175
tiği	-10.6176
sıdır	-10.6177
▁It	-10.618
▁oluşu	-10.6182
▁Tab	-10.6185
▁Soğuk	-10.6186
▁yazısı	-10.619
▁politikası	-10.619
lamak	-10.6192
▁göze	-10.6192
landırma	-10.6193
▁örneği	-10.6195
▁Fas	-10.6199
▁Slav	-10.6201
larıdır	-10.6203
▁Aslan	-10.6203
▁kaldır	-10.6204
kâr	-10.6209
▁Lord	-10.621
▁ayrılması	-10.6213
▁gerektiği	-10.6217
▁çekilen	-10.6222
▁topluluk	-10.6225
▁oluşturmak	-10.6226
şı	-10.6226
▁Min	-10.6229
▁zırhlı	-10.6232
tos	-10.6233
ilmiş	-10.6233
▁Hazar	-10.6234
meyen	-10.6235
▁Poli	-10.6235
illa	-10.6237
▁pilot	-10.6238
▁Inter	-10.624
▁Mezopotamya	-10.624
▁kadınların	-10.624
▁Romalılar	-10.6241
sam	-10.6243
▁Çevre	-10.6243
▁Ex	-10.6246
▁denize	-10.6248
üt	-10.6248
▁sayede	-10.6251
▁Şi	-10.6254
▁köyünde	-10.6255
▁dağlar	-10.6256
▁korunması	-10.6261
▁varsa	-10.6265
▁getirmiştir	-10.6265
my	-10.6266
▁yüzölçümüne	-10.6271
nal	-10.6272
▁Mak	-10.6273
▁Pir	-10.6273
nt	-10.6273
▁hazırlanan	-10.6274
▁yarısı	-10.6275
▁iletken	-10.6276
ika	-10.6277
▁devrimci	-10.6281
▁Â	-10.6281
▁Rıza	-10.6284
▁servis	-10.6284
▁pa	-10.6284
▁Mahalle	-10.6286
▁İskoçya	-10.6287
▁evrim	-10.6287
▁Grubun	-10.6288
▁Sanatçı	-10.6293
▁Gümüş	-10.6296
▁aşama	-10.6302
▁fiyat	-10.6305
▁Arka	-10.6307
▁diller	-10.631
▁yıldızı	-10.631
ر	-10.6311
▁hata	-10.6313
▁Altay	-10.6313
cus	-10.6314
▁arama	-10.6314
▁anlayış	-10.6315
▁komünist	-10.6316
▁Tunceli	-10.6316
▁Ram	-10.6318
mil	-10.6318
▁katılmıştır	-10.6319
▁devir	-10.6326
▁Kap	-10.6326
▁Ça	-10.6329
▁devletler	-10.6329
▁götür	-10.6331
Ge	-10.6333
▁uğradı	-10.6336
▁Elizabeth	-10.6339
▁inancı	-10.6342
▁Madde	-10.6345
▁aktar	-10.6346
▁yürürlüğe	-10.6349
▁Münih	-10.6349
▁duyurdu	-10.6353
▁hadis	-10.6356
▁sistemine	-10.6356
▁Kazak	-10.6356
▁Malatya	-10.6358
lenebilir	-10.6358
▁bölgeyi	-10.636
▁okudu	-10.6361
mayı	-10.6361
paşa	-10.6363
tic	-10.6365
▁eğlence	-10.6372
▁donanma	-10.6377
▁anlaşması	-10.638
▁yerleşti	-10.638
▁van	-10.6385
▁con	-10.6386
▁reddetti	-10.639
▁Küba	-10.6391
▁protesto	-10.6393
▁sağlığı	-10.6398
▁Bell	-10.6398
ark	-10.6402
▁Protestan	-10.6404
▁gelindiğinde	-10.6404
▁toplamda	-10.6406
▁etmeyi	-10.6407
▁otobüs	-10.641
acağını	-10.6411
fen	-10.6411
▁tanıma	-10.6412
ıt	-10.6415
sizlik	-10.6416
▁kavram	-10.6419
▁Life	-10.6419
▁Turan	-10.642
▁gri	-10.642
ân	-10.6421
▁yazılar	-10.6423
▁İşletme	-10.6426
▁akciğer	-10.6426
▁bağış	-10.643
▁August	-10.643
▁romanlar	-10.6432
“	-10.6433
▁şampiyonluk	-10.6439
ε	-10.6441
kir	-10.6443
ön	-10.6444
inci	-10.6448
▁risk	-10.6452
▁Tür	-10.6453
▁Tepe	-10.6454
▁işe	-10.6456
lanmaktadır	-10.6457
▁Kum	-10.646
▁Mag	-10.646
▁yumuşak	-10.6461
▁Mekke	-10.6462
▁şa	-10.6465
▁Reis	-10.6465
gre	-10.6465
▁Eş	-10.6466
lor	-10.6468
▁nesil	-10.6473
▁Toplum	-10.6476
▁Biz	-10.6478
nos	-10.648
▁yakınında	-10.6481
▁imha	-10.6482
▁Asur	-10.6488
▁Prens	-10.6491
Da	-10.6492
▁Emin	-10.6492
▁iptal	-10.6493
▁ediyordu	-10.6496
▁Tatar	-10.6497
▁kıyısı	-10.6498
▁yaşamını	-10.6501
▁üreme	-10.6504
▁Devrim	-10.6508
▁direniş	-10.6514
▁DVD	-10.6515
т	-10.6515
▁geldiğinde	-10.6518
▁Lise	-10.6518
▁Kadınlar	-10.6519
cher	-10.652
▁asist	-10.6524
▁Suudi	-10.6527
▁biyolojik	-10.6535
▁Sanatlar	-10.6537
▁geliştirdi	-10.6539
▁hareketleri	-10.654
▁sürer	-10.6543
▁Annesi	-10.6551
▁Türkleri	-10.6552
▁birbirlerine	-10.6554
▁boyutlu	-10.6556
▁değerlendiril	-10.6556
▁gelme	-10.6557
üstü	-10.6561
▁icra	-10.6561
▁London	-10.6561
▁bölgesel	-10.6563
TP	-10.6563
▁egemenliği	-10.6564
ure	-10.6565
▁etmişlerdir	-10.6565
▁onunla	-10.6567
ū	-10.6571
▁Etimoloji	-10.6571
▁kapsamlı	-10.6571
▁şekilleri	-10.6571
▁Hırvatistan	-10.6571
▁uyumlu	-10.6573
▁gerçekleştirdi	-10.6575
yal	-10.6579
▁ertesi	-10.6582
▁çekilmiş	-10.6582
▁anı	-10.6588
▁baz	-10.659
▁edici	-10.6594
▁Çift	-10.6595
cak	-10.6595
▁piyasa	-10.6596
▁Mus	-10.6596
▁tabanlı	-10.6598
▁Dal	-10.66
▁komedyen	-10.6605
▁heykel	-10.6609
ence	-10.6609
▁çaba	-10.6611
hor	-10.6616
▁belirtmiştir	-10.6617
▁tarafı	-10.6617
sor	-10.6619
▁Yaşar	-10.662
▁ikna	-10.6625
▁Bol	-10.6625
▁ayrılmış	-10.6627
▁başlangıçta	-10.6629
mesini	-10.6634
▁Amatör	-10.6641
▁Nişanı	-10.6644
▁Kra	-10.6646
▁Amasya	-10.665
▁Jones	-10.6652
▁hisse	-10.6653
luğa	-10.6657
▁alacak	-10.6658
▁İsmet	-10.6662
▁Max	-10.6662
▁açılmıştır	-10.6662
kes	-10.6665
▁grafik	-10.667
²'	-10.667
ER	-10.667
▁kolayca	-10.667
ram	-10.6672
▁ilçeleri	-10.6675
▁ayırt	-10.6675
▁Lisesinde	-10.6676
▁kum	-10.6676
▁hizmeti	-10.6676
▁Koleji	-10.6681
▁bakteri	-10.6681
▁pozitif	-10.6682
▁seçme	-10.6683
án	-10.6687
▁Spe	-10.6688
ell	-10.6692
ré	-10.6694
▁Pek	-10.6698
▁Time	-10.6699
▁hesaplama	-10.6704
söz	-10.6711
▁Çay	-10.6716
▁Mavi	-10.6717
▁değerleri	-10.6723
▁gemileri	-10.6723
▁Shi	-10.6725
▁yıldızlar	-10.6727
▁Ch	-10.6731
▁kişiye	-10.6735
▁sonuçlandı	-10.6739
▁kongre	-10.6741
▁açtığı	-10.6747
▁Madalyası	-10.6748
▁ortalaması	-10.6749
▁bunlardan	-10.6749
▁sistemini	-10.675
▁suçlu	-10.6754
▁Gen	-10.6754
▁bakır	-10.6754
▁bunları	-10.6755
▁Bilimleri	-10.6759
▁vermeye	-10.6762
▁otomatik	-10.6763
▁değiştirildi	-10.6768
▁Barcelona	-10.677
▁v	-10.6773
▁tanımlanır	-10.6774
▁layık	-10.6775
▁Adnan	-10.6775
▁şüphe	-10.6776
▁söylenir	-10.6782
▁Kenan	-10.6783
pu	-10.6784
▁biçimleri	-10.6784
▁mali	-10.6786
▁cumhurbaşkanı	-10.6786
▁Brown	-10.6786
▁ittifak	-10.6788
▁araçlar	-10.679
▁senaryo	-10.6791
▁kafa	-10.6794
▁Sonuç	-10.6798
▁yakınlarındaki	-10.6799
▁görsel	-10.6799
şah	-10.6802
▁alıcı	-10.6802
çiler	-10.6803
▁Silahlı	-10.6806
▁bırakma	-10.6807
▁Cambridge	-10.6809
▁Chicago	-10.6809
No	-10.6809
uç	-10.6811
▁cins	-10.6815
▁gitarist	-10.6816
▁Selçuk	-10.6816
▁kor	-10.6818
▁Super	-10.6818
▁düşer	-10.6818
âm	-10.6819
▁konuları	-10.682
▁Müze	-10.6821
▁yazılmıştır	-10.6825
▁donanması	-10.6828
▁Çe	-10.6829
br	-10.6831
▁ağacı	-10.6831
▁hekim	-10.6835
▁kütlesi	-10.6837
▁Peru	-10.6837
AR	-10.6838
▁saldırıları	-10.6841
▁sistemin	-10.6841
rom	-10.6843
▁bağlanmıştır	-10.6846
▁görmüş	-10.6847
iği	-10.6853
lıklar	-10.6854
▁Hükûmet	-10.6854
▁değişme	-10.6854
▁Yüksel	-10.6856
▁Kır	-10.6857
▁güncel	-10.6857
▁hatları	-10.6857
▁sırt	-10.6858
İstanbul	-10.6863
▁yardımcısı	-10.6866
▁gazetesinde	-10.6866
▁Konferansı	-10.6867
▁çöl	-10.6867
▁Nor	-10.6869
lediği	-10.6869
burg	-10.6872
▁soy	-10.6876
▁Des	-10.6876
▁aşkın	-10.6876
▁üstü	-10.688
▁ülkesi	-10.6881
şir	-10.6883
▁olduklarını	-10.6888
▁süvari	-10.689
sol	-10.6892
cht	-10.6893
▁çiçek	-10.6894
▁Hor	-10.6897
▁kuzeyde	-10.6898
▁fil	-10.6899
▁sezonun	-10.6899
del	-10.6902
▁Cilt	-10.6902
▁birisidir	-10.6902
ls	-10.6902
▁kuruluşları	-10.6904
▁ligi	-10.6904
▁Cezayir	-10.6906
▁Tunç	-10.6906
▁değişimi	-10.6907
ere	-10.6908
▁başlaması	-10.6913
▁ilerleyen	-10.6913
ksiyon	-10.6913
▁Hun	-10.6914
▁caz	-10.6917
▁basıncı	-10.6917
▁kamp	-10.6918
▁geçir	-10.6919
▁çıkarma	-10.6921
▁Teknoloji	-10.6921
▁bilimci	-10.6926
▁Erzincan	-10.6926
▁hastalıkları	-10.6926
▁Rose	-10.6927
▁kahverengi	-10.6928
▁uygulamaları	-10.693
▁Tim	-10.6932
▁rüzgâr	-10.6932
▁takımında	-10.6934
Avrupa	-10.6935
▁Harp	-10.6936
´	-10.6936
▁neticesinde	-10.6936
▁ha	-10.6937
▁değiştirme	-10.694
▁müzikal	-10.694
▁ilçesinin	-10.6946
sil	-10.6946
▁Saat	-10.6947
▁çelik	-10.6948
aka	-10.6948
▁bireysel	-10.6951
▁boru	-10.6952
lerce	-10.6956
▁memeliler	-10.6962
▁noktada	-10.6962
▁Sağ	-10.6963
eş	-10.6966
▁Kendisi	-10.6967
istler	-10.6967
▁park	-10.697
▁egemen	-10.6971
▁ahşap	-10.6971
ford	-10.6971
▁Hareket	-10.6971
▁Eli	-10.6972
д	-10.6974
iler	-10.6974
▁maçına	-10.6974
sp	-10.6975
▁Qui	-10.6977
▁motoru	-10.6978
▁ziyade	-10.6983
▁mermer	-10.6983
▁etkileşim	-10.6985
▁gel	-10.6986
tive	-10.6989
ıldığı	-10.6991
▁akımı	-10.6992
▁olanlar	-10.6994
Be	-10.6999
▁İngilizler	-10.7001
▁İranlı	-10.7003
▁Arnavut	-10.7006
▁yenerek	-10.7006
▁demektir	-10.7007
lus	-10.7012
▁evrenin	-10.7016
emez	-10.7016
▁vadi	-10.7017
▁Pazar	-10.7017
▁Beyliği	-10.7023
▁liderleri	-10.7023
;"|	-10.7026
▁kullanılmış	-10.703
▁sur	-10.7032
▁Çelik	-10.7033
▁baraj	-10.7034
▁hastalıklar	-10.7037
lum	-10.7037
▁subay	-10.7038
▁Antonio	-10.7038
tas	-10.7038
lma	-10.7038
▁zamanın	-10.7039
▁zamana	-10.704
▁görüşleri	-10.7044
▁Enerji	-10.7044
yol	-10.7046
▁kurul	-10.7047
lly	-10.7048
▁Hristiyanlık	-10.7049
▁dağlık	-10.7051
pon	-10.7052
▁Kurgusal	-10.7053
▁Hakkı	-10.7055
▁gelenek	-10.7056
malıdır	-10.7059
▁tak	-10.7062
▁paket	-10.7062
▁düzeni	-10.7062
▁sembolü	-10.7066
sha	-10.7068
▁Komutanı	-10.7069
▁fosil	-10.707
▁nüfusa	-10.707
madan	-10.7072
To	-10.7075
▁turne	-10.7075
mun	-10.7077
▁blok	-10.7083
▁tavsiye	-10.7085
▁Afrikalı	-10.7087
▁ayrılma	-10.7087
ú	-10.7088
▁oluşmuştur	-10.709
▁nadir	-10.7092
▁sundu	-10.7093
▁fabrika	-10.7093
As	-10.7094
▁İslami	-10.7094
▁Sil	-10.7095
▁Pra	-10.7098
pen	-10.7099
asyonu	-10.7103
▁element	-10.7105
▁Şahin	-10.7109
▁meşhur	-10.7109
▁ismiyle	-10.7109
▁dayanmaktadır	-10.7112
▁sayılar	-10.7116
▁döneme	-10.7116
▁Mary	-10.7117
▁olacağını	-10.7118
▁marka	-10.7125
▁yapması	-10.7125
nak	-10.7127
▁satan	-10.7131
▁rakip	-10.7132
Or	-10.7133
▁deney	-10.7136
DA	-10.7139
▁Pierre	-10.7139
▁benim	-10.7143
▁çerçevesinde	-10.7143
▁Ford	-10.7144
▁evli	-10.7145
▁yetersiz	-10.7145
▁Kütüphanesi	-10.7148
▁aş	-10.7154
Ho	-10.7155
▁kısaca	-10.7161
▁Çam	-10.7161
▁söylemiştir	-10.7162
▁ot	-10.7165
▁mutfağı	-10.7166
▁Boğaz	-10.7166
▁Caddesi	-10.7167
pur	-10.7168
▁özelliklerini	-10.7169
▁çevresi	-10.717
▁bildiri	-10.7175
▁karşılaşma	-10.718
▁uzman	-10.718
▁Yunus	-10.7184
▁gönüllü	-10.7184
▁uygulamalar	-10.7185
▁kazanarak	-10.7185
▁demokratik	-10.7186
▁organik	-10.7186
▁işlemleri	-10.719
▁gruptan	-10.7192
arı	-10.7195
Su	-10.7195
tle	-10.7196
▁kaçır	-10.7196
▁yayım	-10.7199
▁yaşta	-10.72
▁semt	-10.7206
▁Avustralyalı	-10.7209
▁mutlak	-10.7209
▁sorgu	-10.7212
▁bağlantısı	-10.7213
▁sürüldü	-10.722
▁Yabancı	-10.7221
▁dua	-10.7223
▁İspanyolca	-10.7224
▁açan	-10.7226
▁oranında	-10.7227
▁Dor	-10.7228
▁talebi	-10.7231
▁yoktu	-10.7232
▁Halep	-10.7233
▁boyun	-10.7233
▁girişi	-10.7238
AT	-10.7239
▁bulunmuş	-10.7239
▁fabrikası	-10.724
▁öğrenciler	-10.724
iyo	-10.7241
▁kalıp	-10.7244
▁Kağan	-10.7252
anlar	-10.7254
▁gösterme	-10.7255
▁İrlandalı	-10.7256
▁Play	-10.7258
ds	-10.726
mes	-10.7261
▁koşulları	-10.7262
▁kendisinden	-10.7262
bul	-10.7262
▁Mes	-10.7262
ğü	-10.7262
▁Hamilton	-10.7267
▁mühendis	-10.7271
▁geçmesi	-10.7272
So	-10.7272
mü	-10.7274
▁kütüphane	-10.7279
çü	-10.728
▁Bill	-10.7287
fet	-10.7288
▁kaynaklarda	-10.729
▁Yahya	-10.7291
▁Normal	-10.7292
▁şeyler	-10.7292
DE	-10.7294
▁zincir	-10.7294
▁geriye	-10.7294
ğe	-10.7295
▁dünyasında	-10.73
türk	-10.7302
▁kriz	-10.7303
▁bellek	-10.7303
▁sanatçılar	-10.7304
vis	-10.7305
eg	-10.7305
▁çevresindeki	-10.7306
ımı	-10.7308
▁Serie	-10.731
▁kurmak	-10.7311
▁güreş	-10.7313
▁savaşçı	-10.7314
▁başrol	-10.7314
ning	-10.7315
▁mil	-10.7316
▁gerçekleşir	-10.7316
▁Kafkas	-10.7318
▁çalı	-10.7319
▁girmiş	-10.7321
▁üstüne	-10.7323
jan	-10.7324
▁parçalar	-10.7328
▁Sey	-10.7328
▁Oscar	-10.7328
ish	-10.7328
MS	-10.733
▁Uğur	-10.7334
malı	-10.7335
▁Cup	-10.7338
ا	-10.7338
kül	-10.7338
▁Köprüsü	-10.734
▁Ten	-10.7343
▁Endonezya	-10.7343
▁derecesi	-10.7345
▁diğeri	-10.7347
▁Doğru	-10.7349
▁komut	-10.7354
▁Nuri	-10.7355
▁dakikada	-10.7357
DP	-10.7358
▁şiiri	-10.7359
▁olmasa	-10.736
▁kurak	-10.736
▁kulübün	-10.7361
▁VI	-10.7361
ami	-10.7362
▁Sistem	-10.7362
▁güreşçi	-10.7363
▁zaten	-10.7365
ula	-10.7365
▁Emre	-10.7365
▁keşif	-10.737
م	-10.737
abilmektedir	-10.7371
pri	-10.7371
▁duyma	-10.7374
▁kâğıt	-10.7375
▁şehre	-10.7378
▁Zeus	-10.738
▁devri	-10.7383
▁geçiren	-10.7383
▁dışarı	-10.7385
▁tarz	-10.7387
▁diğerleri	-10.7387
▁başbakan	-10.7388
▁ulaşma	-10.7389
▁kanalları	-10.7391
▁yarışı	-10.7391
▁mağara	-10.7396
▁ortamı	-10.7397
▁maddenin	-10.7404
▁dünyadaki	-10.7405
▁Kaynak	-10.7405
▁töreni	-10.7406
▁dal	-10.7407
izasyon	-10.7411
▁çabaları	-10.7412
▁Alfred	-10.7412
▁Projesi	-10.7413
▁Green	-10.7414
▁konferans	-10.7414
▁olduğunda	-10.7419
▁kazanmış	-10.7424
▁History	-10.7424
▁gösterilir	-10.7424
▁anıt	-10.7425
iki	-10.7426
Man	-10.7426
▁görevli	-10.743
▁tuz	-10.7435
▁Gaziantep	-10.7435
SS	-10.7436
▁çay	-10.744
▁Google	-10.7449
▁geçmişi	-10.7449
▁kimlik	-10.7451
lt	-10.7452
▁modelleri	-10.7452
eme	-10.7459
▁sıfır	-10.7461
▁Mir	-10.7462
▁İçin	-10.7463
▁eki	-10.7463
▁açmıştır	-10.7464
▁bölümde	-10.7465
▁Mars	-10.7466
▁şarkıcısı	-10.7469
▁arttır	-10.747
istan	-10.7472
▁Yahudiler	-10.7472
▁oynan	-10.7472
و	-10.7473
Cumhurbaşkanlığı	-10.7473
▁mensubu	-10.7473
▁yaşındaki	-10.7474
pel	-10.7475
abı	-10.7478
laştırma	-10.7478
▁eğitimini	-10.7479
tch	-10.7481
▁Sayı	-10.7482
▁Çağdaş	-10.7486
▁sistemler	-10.7486
▁Th	-10.7487
▁endüstri	-10.749
▁şehirleri	-10.7495
▁topluluğu	-10.7497
▁örnekler	-10.7501
▁meydan	-10.7503
▁Gra	-10.7503
▁not	-10.7505
▁Hel	-10.7507
▁Formula	-10.751
▁kaldırılması	-10.7511
▁oluşturdu	-10.7511
wo	-10.7515
▁Milan	-10.7516
cular	-10.7518
▁gönderme	-10.752
are	-10.7521
▁kamera	-10.7523
▁Ovası	-10.7526
▁Fakültesinde	-10.7529
▁isteme	-10.753
▁bireyler	-10.7531
▁bölümler	-10.7532
kli	-10.7533
▁peri	-10.7541
▁belgesel	-10.7543
xi	-10.7546
ê	-10.7547
▁nispeten	-10.7547
▁Uygur	-10.7548
▁ulaşmıştır	-10.7551
işi	-10.7554
▁Mora	-10.7554
▁hedefi	-10.7556
▁öldürülmesi	-10.7563
▁donanım	-10.7563
lia	-10.7563
▁ok	-10.7569
▁cinayet	-10.7569
▁yapılacak	-10.7571
▁ağrı	-10.7572
▁stil	-10.7572
▁Best	-10.7573
▁Ünlü	-10.7573
pus	-10.7575
▁Fil	-10.7575
▁perde	-10.7577
▁otorite	-10.7579
▁ticareti	-10.758
leşen	-10.7581
larca	-10.7588
Ke	-10.7589
▁programlama	-10.7589
▁görmek	-10.7595
▁uçakları	-10.7599
▁Geleneksel	-10.7601
▁şairleri	-10.7601
▁kılıç	-10.7602
psi	-10.7607
lanıp	-10.7608
▁Anna	-10.7608
▁kurşun	-10.7609
▁Arthur	-10.7609
▁Kadıköy	-10.761
▁kuvvetlerinin	-10.761
▁und	-10.7613
▁soyu	-10.7613
bl	-10.7614
all	-10.7614
kteydi	-10.7618
EC	-10.7621
▁sermaye	-10.7621
▁tıbbi	-10.7621
▁birçoğu	-10.7624
lıkları	-10.7626
▁deneyim	-10.7632
▁Bonn	-10.7632
к	-10.7632
▁dizisinde	-10.7633
lamaktadır	-10.7635
▁Francisco	-10.7635
og	-10.7637
▁rastlanır	-10.7637
▁Maya	-10.7638
▁Post	-10.7642
cker	-10.7645
▁oluşturma	-10.7646
Kar	-10.7646
▁güneyde	-10.7647
▁Christian	-10.7647
▁Yayıncılık	-10.7647
yl	-10.7649
▁Tak	-10.7653
▁bırakıldı	-10.7657
▁Menderes	-10.7659
▁tanınır	-10.7659
▁alınma	-10.7659
▁konularda	-10.7661
▁kullanmıştır	-10.7662
▁Yemen	-10.7663
▁Donanması	-10.7667
▁Ey	-10.7668
▁şehrinin	-10.7669
leştirilmiş	-10.767
▁teklifi	-10.7671
▁medrese	-10.7671
▁şarap	-10.7671
qua	-10.7672
▁takıma	-10.7674
▁tohum	-10.7678
▁AB	-10.7681
▁farklılıklar	-10.7682
▁olduktan	-10.7682
▁bakım	-10.7683
Yeni	-10.7687
▁Tümen	-10.7687
▁gitme	-10.7687
▁Lenin	-10.7688
▁Bob	-10.7692
tme	-10.7693
▁işler	-10.7696
▁gelip	-10.7698
▁Kes	-10.7699
film	-10.77
▁duyu	-10.7701
▁önlemek	-10.7702
▁yardımı	-10.7702
▁salonu	-10.7702
gur	-10.7702
▁albümünde	-10.7705
▁yeteneği	-10.7705
▁verilme	-10.7706
▁operasyon	-10.7707
▁tarihindeki	-10.7707
▁mineral	-10.7712
oksi	-10.7717
▁Listesi	-10.7718
▁ışığın	-10.7721
▁Çinli	-10.7721
▁çocuklar	-10.7721
▁çeşitleri	-10.7721
▁Gaz	-10.7728
eira	-10.7731
▁zamanı	-10.7731
abileceği	-10.7733
▁eyaleti	-10.7733
▁herkes	-10.7733
▁Platon	-10.7735
▁bulmak	-10.7736
▁tablo	-10.7737
▁numarası	-10.774
tter	-10.7741
▁kalması	-10.7744
▁gerekse	-10.7746
▁Gor	-10.7747
qu	-10.7748
hy	-10.7749
▁Batman	-10.7749
▁golünü	-10.7752
▁usta	-10.7755
▁yaygındır	-10.7756
mekteydi	-10.7756
▁temsilcisi	-10.7758
rio	-10.7759
▁kromozom	-10.7759
▁mermi	-10.7761
▁Day	-10.7762
▁getirilen	-10.7763
ise	-10.7764
▁Cins	-10.7767
▁Napolyon	-10.7772
▁gerekmektedir	-10.7775
fan	-10.7775
▁Sev	-10.7776
▁elektro	-10.7779
▁vücudun	-10.7781
zik	-10.7781
▁Cho	-10.7784
▁olmasının	-10.7784
▁konuşulan	-10.7785
▁Il	-10.7787
▁macera	-10.7787
sunu	-10.7788
▁Aslında	-10.7788
▁biriydi	-10.7791
▁Evi	-10.7792
▁Önemli	-10.7797
▁reaksiyon	-10.7798
siyon	-10.7802
fra	-10.7803
ılma	-10.7803
▁ulaşır	-10.7806
▁yöneticisi	-10.7807
▁Not	-10.7807
zam	-10.7815
hard	-10.7816
gül	-10.7816
▁çatı	-10.7817
▁sayılır	-10.7817
▁Demirel	-10.7822
▁sinyal	-10.7825
üne	-10.7827
▁dövüş	-10.7827
jen	-10.7828
▁God	-10.7829
▁krizi	-10.783
▁!	-10.7834
▁Eurovision	-10.7835
▁Yardımcı	-10.7837
ref	-10.7838
▁parmak	-10.784
▁merkezidir	-10.7843
▁kararlı	-10.7846
▁Pal	-10.7847
▁toplantı	-10.7848
▁amaçla	-10.7848
lıyor	-10.7849
▁hayvancılık	-10.785
▁yazan	-10.7853
▁bağlantılı	-10.7854
▁Pel	-10.7858
▁haricinde	-10.786
▁getirmek	-10.786
▁farklılık	-10.7861
▁atmıştır	-10.7861
▁olayların	-10.7861
▁yatırım	-10.7864
▁alınmış	-10.7866
▁Kong	-10.7866
▁pas	-10.7867
ić	-10.7869
▁alanlarında	-10.787
▁Abbas	-10.7871
▁İnce	-10.7872
▁kapasitesi	-10.7873
wood	-10.7874
Ak	-10.7874
▁vur	-10.7875
▁atmosfer	-10.7876
▁doğuda	-10.7878
▁filozoflar	-10.788
▁doktora	-10.7885
▁Sem	-10.7888
▁özgürlük	-10.7897
yarak	-10.79
▁Birkaç	-10.7901
▁Karabük	-10.7903
kür	-10.7906
▁gir	-10.7907
atı	-10.7907
bert	-10.7908
▁yerleşme	-10.7908
▁farklıdır	-10.7909
▁günah	-10.791
▁oluşumu	-10.7911
tia	-10.7912
tem	-10.7913
▁Maç	-10.7914
▁Mis	-10.7915
▁şirketin	-10.7916
▁Pala	-10.7916
▁savunan	-10.7916
▁konserler	-10.7917
▁halife	-10.7917
▁listeleri	-10.7918
▁Tank	-10.7919
▁finale	-10.7921
▁eksikliği	-10.7921
▁fa	-10.7922
г	-10.7924
▁organize	-10.7925
liğinin	-10.7927
▁Sto	-10.7928
▁Yukarı	-10.793
▁geliştirilmesi	-10.7931
▁Takımı	-10.7931
▁Laz	-10.7931
▁üniversiteler	-10.7934
star	-10.7936
▁form	-10.7938
▁bulan	-10.7939
▁sabah	-10.7939
▁yolculuk	-10.7942
▁yapıya	-10.7944
▁kömür	-10.7948
▁anlama	-10.7951
layıp	-10.7952
acaktır	-10.7955
▁karışımı	-10.7956
▁maçın	-10.7957
▁men	-10.7961
▁yarattığı	-10.7961
▁girmesi	-10.7961
▁kesme	-10.7963
▁gönderilen	-10.7966
itler	-10.7967
pt	-10.7969
▁Dur	-10.797
▁üreten	-10.797
▁Yüz	-10.797
▁tarihine	-10.7973
▁çekilmesi	-10.7973
▁imzalanan	-10.7978
▁Yönetimi	-10.7979
н	-10.7982
ografi	-10.7987
▁Hürriyet	-10.7988
▁ulaş	-10.7991
▁bağlayan	-10.7991
▁Mad	-10.7992
▁hayvanların	-10.7992
lemiştir	-10.7995
Ben	-10.7995
▁Hakkında	-10.7996
▁kapsar	-10.7998
Ku	-10.8
ub	-10.8001
▁Mücadele	-10.8002
▁yazmaya	-10.8003
▁otonom	-10.8003
▁Hatay	-10.8004
▁Gal	-10.8007
▁romancı	-10.8007
▁öyle	-10.8015
▁kuantum	-10.8015
amadı	-10.8015
▁yapay	-10.8016
non	-10.8016
▁mes	-10.8016
stro	-10.8016
▁hapse	-10.8017
▁Big	-10.8018
had	-10.8019
far	-10.8021
▁mimarisi	-10.8023
gy	-10.8024
ρ	-10.8025
duğu	-10.8025
▁öğretmeni	-10.8025
▁yaparken	-10.8026
şma	-10.8028
▁İzlanda	-10.8028
▁çekici	-10.8028
şar	-10.8029
▁Com	-10.8031
▁eskiden	-10.8032
▁Mektebi	-10.8033
▁Char	-10.8033
▁batıda	-10.8035
▁liberal	-10.804
niz	-10.804
▁sürmüştür	-10.8041
dağı	-10.8042
▁partinin	-10.8045
âr	-10.8048
è	-10.8049
▁çıkarıldı	-10.8049
▁köyün	-10.8053
▁Rönesans	-10.8054
▁mükemmel	-10.8054
leridir	-10.8054
şu	-10.8055
▁kısımları	-10.8056
▁Adı	-10.8056
▁Plak	-10.8058
ric	-10.806
▁görevleri	-10.8062
▁çeyrek	-10.8067
▁Boğaziçi	-10.8067
▁sentez	-10.8069
uf	-10.807
▁meclisi	-10.8073
tura	-10.8074
▁Liverpool	-10.8078
▁profesör	-10.8082
▁Birlik	-10.8084
ebe	-10.8088
▁sessiz	-10.8093
kol	-10.8093
▁bildirdi	-10.8095
▁Aşağı	-10.8096
▁dijital	-10.8106
▁durumuna	-10.8108
▁topraklarında	-10.8109
▁Konservatuvarı	-10.8113
▁milliyetçi	-10.8114
▁Girit	-10.8115
▁Özgür	-10.8115
▁Ürdün	-10.8119
▁Scott	-10.8121
▁açılması	-10.8122
laşan	-10.8127
▁merkezinin	-10.8129
▁katman	-10.8129
▁saniye	-10.813
▁temeli	-10.8132
▁kaynaklanan	-10.8135
▁çalışmıştır	-10.8136
▁kuvvetler	-10.8138
▁Ly	-10.8139
ani	-10.8143
▁kurumu	-10.8144
▁Şehri	-10.8146
▁fırsat	-10.8148
▁Şampiyonluğu	-10.8148
▁oğulları	-10.815
▁gösterildi	-10.8151
▁•	-10.8152
▁ayrım	-10.8152
▁mantık	-10.8152
▁Ste	-10.8153
▁tutan	-10.8154
▁olayın	-10.8157
▁sebeple	-10.8158
nas	-10.8159
zel	-10.816
▁başlı	-10.8163
ita	-10.8166
▁fakülte	-10.8168
▁Azeri	-10.8169
▁günler	-10.817
▁Said	-10.8171
▁eşcinsel	-10.8171
▁istila	-10.8172
acı	-10.8174
▁Albümün	-10.8177
▁verilmiş	-10.8177
▁nehri	-10.8179
▁sözcükler	-10.8181
▁ırk	-10.8182
span	-10.8184
▁golle	-10.8185
▁zorla	-10.8192
▁Steve	-10.8193
hur	-10.8197
▁Society	-10.8198
▁Ertesi	-10.8198
▁tarif	-10.82
▁kırsal	-10.8201
▁ulus	-10.8207
▁İttihat	-10.8211
▁maddelerin	-10.8211
▁gösterilmiştir	-10.8212
▁içermektedir	-10.8212
▁Budizm	-10.8213
▁Johann	-10.8215
▁sunucusu	-10.8221
▁kıyasla	-10.8221
▁Helen	-10.8222
▁Hizmet	-10.8223
▁sınıflandırma	-10.8224
bon	-10.8225
field	-10.8225
Büyük	-10.8225
▁kahraman	-10.8227
▁emri	-10.8227
▁She	-10.8231
▁uzanır	-10.8235
▁efsane	-10.8236
▁Ken	-10.8237
▁Joe	-10.8244
▁duvarı	-10.8244
▁Avrupalı	-10.8245
▁Mur	-10.8247
▁boyut	-10.8247
▁İdari	-10.8251
▁artması	-10.8254
▁Prusya	-10.8256
▁dönüşüm	-10.8257
iv	-10.8258
ctor	-10.8258
▁zırh	-10.8259
nus	-10.8259
▁cümle	-10.826
▁sayılan	-10.826
▁Litvanya	-10.8261
▁çoğunu	-10.8262
▁yaşadıkları	-10.8263
II	-10.8264
▁doğmuştur	-10.8265
▁Opera	-10.8265
▁katlı	-10.8266
ato	-10.8267
göz	-10.827
▁harekât	-10.827
şim	-10.827
▁grupta	-10.8274
▁Filmin	-10.8276
bb	-10.8281
▁familya	-10.8281
▁konular	-10.8284
▁atlet	-10.8286
▁teorik	-10.8291
▁çektiği	-10.8291
▁koloni	-10.8292
▁insanlara	-10.8294
▁şart	-10.8297
τ	-10.8298
▁değerlendirme	-10.8298
▁İsviçreli	-10.8301
▁Gö	-10.8302
▁Floransa	-10.8304
▁ufak	-10.8304
▁kitapta	-10.8305
▁Sezar	-10.8306
ES	-10.8308
▁performansı	-10.8311
▁tesis	-10.8312
▁kaynaklı	-10.8315
atif	-10.8316
č	-10.8317
▁Boston	-10.8319
▁davası	-10.8319
▁hukukçu	-10.832
▁girişim	-10.832
▁uğraş	-10.832
sti	-10.832
▁kuyruk	-10.8322
ges	-10.8323
maktaydı	-10.8329
▁Sibirya	-10.833
tom	-10.8331
▁Marie	-10.8333
daş	-10.8334
ullah	-10.8338
▁açısı	-10.8341
▁sporcular	-10.8342
▁kaldırıldı	-10.8344
▁tüfek	-10.8345
iyeti	-10.8345
▁amatör	-10.8348
El	-10.8349
▁akış	-10.835
fil	-10.8351
irler	-10.8353
teri	-10.8358
▁ortamda	-10.8359
▁Mari	-10.8359
ios	-10.836
▁yerleşik	-10.836
▁konuk	-10.8365
kh	-10.8368
▁Aleksandr	-10.8368
key	-10.8369
▁öğreti	-10.837
▁bizzat	-10.8371
▁Avcı	-10.8371
Konstantinopolis	-10.8372
▁Aster	-10.8373
▁yönetilen	-10.8375
▁Zara	-10.8376
▁kuralları	-10.8376
▁Rize	-10.8378
▁damar	-10.838
▁düşür	-10.838
ves	-10.8384
ī	-10.8384
▁Gol	-10.8386
hâ	-10.8387
masıyla	-10.8388
ette	-10.839
wer	-10.839
▁kayıp	-10.8392
▁memur	-10.8395
background	-10.8397
▁College	-10.8397
▁kenar	-10.8398
▁ürünü	-10.8403
▁Yurt	-10.8404
sson	-10.8406
pla	-10.8409
▁iyice	-10.841
ssa	-10.8413
▁girerek	-10.8414
Fi	-10.8415
▁erkekler	-10.8416
ology	-10.842
▁çerçeve	-10.8422
âl	-10.8423
▁Bitki	-10.8425
Her	-10.8426
▁cisim	-10.8427
▁Zelanda	-10.8432
kam	-10.8433
▁miras	-10.8434
oc	-10.8436
IS	-10.8436
▁Üsküdar	-10.8438
▁frekans	-10.8441
▁imzalandı	-10.8442
klarını	-10.8443
▁odak	-10.8444
▁gerçekten	-10.8445
sing	-10.8445
▁sürecinde	-10.8448
▁oyunlar	-10.8449
▁ser	-10.8451
▁mesaj	-10.8454
▁Güç	-10.8459
▁gitmek	-10.8459
▁yağma	-10.846
kay	-10.8461
[	-10.8461
▁halen	-10.8461
▁mezarı	-10.8464
▁Genelkurmay	-10.8465
▁piyanist	-10.8465
▁atarak	-10.8466
▁sayısının	-10.8467
▁kitle	-10.8467
▁güvenli	-10.8467
▁düzenledi	-10.8468
▁düşmesi	-10.8468
▁uzunluğunda	-10.8469
▁İlçesi	-10.8472
▁Böyle	-10.8474
▁görüldüğü	-10.8476
▁Del	-10.8478
Er	-10.8479
▁stratejik	-10.8479
▁yedek	-10.8479
▁alçak	-10.848
▁atış	-10.8482
▁hareketli	-10.8485
mba	-10.8487
▁edebi	-10.8488
sur	-10.8489
Dünya	-10.8493
São	-10.8498
▁Cre	-10.8498
kçe	-10.8498
yazı	-10.85
▁kızıl	-10.8501
gay	-10.8502
▁Kartal	-10.8505
▁dâhil	-10.8506
MA	-10.8507
▁Kitapları	-10.8508
▁otel	-10.8509
zz	-10.851
▁yiyecek	-10.851
▁İnan	-10.8513
Ca	-10.8515
▁Part	-10.8518
▁küre	-10.8519
▁kimliği	-10.8521
dük	-10.8523
▁mekan	-10.8524
▁müzisyenler	-10.8524
nor	-10.8528
▁Epi	-10.8529
▁getirilmesi	-10.8535
▁ülkeyi	-10.8535
lenmektedir	-10.8541
▁döneminden	-10.8548
▁Ulaşım	-10.8549
Söz	-10.8551
▁alanına	-10.8552
▁finans	-10.8552
▁çalışmak	-10.8553
▁hikâyesi	-10.8554
▁seçimlerde	-10.8558
▁takma	-10.8559
▁mevsim	-10.8559
sim	-10.8561
▁Çar	-10.8561
vers	-10.8562
▁günümüzdeki	-10.8562
▁Mil	-10.8564
abilmesi	-10.8565
etti	-10.8566
▁yeraltı	-10.8566
▁tez	-10.8566
▁kullanıcı	-10.8572
▁arz	-10.8574
▁uy	-10.8574
▁yapımında	-10.8576
izmin	-10.8576
▁Kel	-10.8577
▁ekip	-10.8579
▁Bri	-10.8581
▁Çal	-10.8581
▁Rey	-10.8582
▁kav	-10.8582
▁kodu	-10.8584
▁kurtar	-10.8585
▁Club	-10.8588
▁Newton	-10.8589
▁Şeytan	-10.8589
meyi	-10.8592
▁tri	-10.8601
▁kurmuştur	-10.8604
▁yayınlanmıştır	-10.8605
▁kesim	-10.8606
▁Kaptan	-10.8608
▁Hatun	-10.8609
▁Us	-10.8611
▁İnsanlar	-10.8612
▁kümesi	-10.8613
▁Mont	-10.8613
▁Alaska	-10.8615
▁Akça	-10.8618
▁kim	-10.8618
▁kullanmaya	-10.8619
▁adalar	-10.8619
▁bunlara	-10.8619
▁kariyerine	-10.862
▁platform	-10.862
alist	-10.8622
▁oradan	-10.8628
inger	-10.8628
▁Kapı	-10.8632
▁tutuklandı	-10.8635
düğü	-10.8637
▁olmaz	-10.8638
▁manastır	-10.8642
▁Recep	-10.8643
▁bulunmamaktadır	-10.8644
▁parlamento	-10.8647
▁bulunabilir	-10.8649
▁direktörler	-10.865
▁hediye	-10.865
▁olurlar	-10.8653
ore	-10.8654
▁yayını	-10.866
well	-10.8665
gua	-10.8669
▁yazılımları	-10.867
▁Barajı	-10.8671
▁düzenlendi	-10.8679
▁Kahire	-10.8684
▁Kocaeli	-10.8684
iti	-10.8686
▁seçti	-10.8688
▁olmayı	-10.8693
▁organizasyon	-10.8693
▁kişileri	-10.8695
▁Sak	-10.8698
▁evrensel	-10.87
▁bestecileri	-10.8701
▁hü	-10.8704
▁şeklindedir	-10.8704
▁altıncı	-10.8708
▁Ecevit	-10.8712
▁artar	-10.8719
AS	-10.8722
▁ordusunu	-10.8722
▁psikolojik	-10.8723
▁Kadir	-10.8724
▁Simon	-10.8724
▁heykeltıraş	-10.8726
▁yükselen	-10.8726
▁Henri	-10.8727
▁turda	-10.8729
▁Pla	-10.873
▁akışı	-10.873
▁tahmini	-10.8736
▁çocukların	-10.8736
▁koşullar	-10.8737
▁play	-10.8737
ünde	-10.8739
Po	-10.8742
▁sömürge	-10.8742
SI	-10.8743
▁bahçe	-10.8743
siniz	-10.8744
▁Bolu	-10.8745
▁Oda	-10.8748
iri	-10.8748
Son	-10.8748
evî	-10.875
likten	-10.8753
▁doğduğu	-10.8755
▁Romalı	-10.8755
▁diyerek	-10.8756
▁adalet	-10.876
▁maça	-10.8761
cen	-10.8762
▁Özellikleri	-10.8762
▁edilme	-10.8763
▁ülkeye	-10.8763
▁teşkilatı	-10.8765
▁Franz	-10.8767
▁verilmektedir	-10.877
▁gül	-10.877
▁kaplı	-10.8771
dışı	-10.8773
▁Hikâye	-10.8774
▁kuran	-10.8777
▁peygamber	-10.8781
▁getir	-10.8781
▁görmüştür	-10.8782
▁gemiler	-10.8785
zı	-10.8787
▁değiştirdi	-10.8787
▁Sabah	-10.8788
▁Terim	-10.8789
▁Polis	-10.8791
▁önemini	-10.8792
AC	-10.8793
▁ordunun	-10.8794
▁üret	-10.8796
▁Çi	-10.8797
▁sektör	-10.8797
▁başbakanı	-10.8802
▁Program	-10.8808
▁seferi	-10.8808
▁Müziği	-10.8809
▁dayanarak	-10.8809
▁kredi	-10.881
▁belki	-10.8813
▁Sümer	-10.8815
▁Harekâtı	-10.8816
▁kesimi	-10.8817
lendiği	-10.882
▁Veri	-10.8821
örü	-10.8821
▁tarihî	-10.8821
▁bombardıman	-10.8823
▁Sünni	-10.8823
günümüz	-10.8825
▁Night	-10.8826
oto	-10.8827
▁boğaz	-10.883
ym	-10.883
▁ilçede	-10.8834
μ	-10.8837
▁Beni	-10.8837
▁plana	-10.8838
▁Yapılan	-10.8838
▁milli	-10.884
ex	-10.8841
▁Fuat	-10.8842
abilmek	-10.8843
SE	-10.8844
▁hükûmetin	-10.8844
▁göçmen	-10.8846
▁BM	-10.8846
▁geliştirilmiş	-10.8846
▁sisteminde	-10.8847
▁Gold	-10.8849
—	-10.885
▁payı	-10.8853
▁çeker	-10.8854
▁Ayşe	-10.886
▁atıldı	-10.8863
³	-10.8866
▁solunum	-10.8866
alan	-10.8866
▁analizi	-10.8868
▁düşünme	-10.8868
nız	-10.887
▁pozisyon	-10.8871
▁Kul	-10.8872
▁Hong	-10.8874
▁Eyalet	-10.8874
▁dergisinde	-10.8875
▁Geri	-10.8877
▁adres	-10.888
▁toz	-10.8881
▁personel	-10.8881
▁görevden	-10.8884
▁soyundan	-10.8887
▁oranları	-10.8887
▁es	-10.8888
▁Chris	-10.889
ator	-10.8893
▁burun	-10.8894
▁bebek	-10.8894
▁Aksaray	-10.8894
▁taraftan	-10.8895
CD	-10.8897
▁otur	-10.8898
▁mono	-10.8898
▁AK	-10.8901
▁Bek	-10.8902
▁kullan	-10.8904
AD	-10.8907
lah	-10.891
ding	-10.891
rica	-10.8915
▁oluşmuş	-10.8918
▁kaplan	-10.8919
ildi	-10.892
▁Devri	-10.892
▁doğası	-10.8921
nç	-10.8923
▁destekleyen	-10.8924
▁hu	-10.8927
▁yaprak	-10.8928
▁artışı	-10.893
form	-10.893
▁AC	-10.8932
ə	-10.8934
▁kadrosu	-10.8937
▁beslenme	-10.8938
▁sürdürmektedir	-10.8939
▁Gökçe	-10.8939
tak	-10.8939
▁şimdiki	-10.8943
▁temelini	-10.8943
▁kuram	-10.8944
▁Karadağ	-10.8946
▁Siyah	-10.8951
▁birlikler	-10.8951
cil	-10.8955
archive	-10.8958
▁Long	-10.8959
▁ayakta	-10.8959
▁soylu	-10.896
▁Familya	-10.8964
▁güneydoğu	-10.8965
▁Celal	-10.8968
▁Türkçesi	-10.8968
▁uzaklıkta	-10.8968
▁İhsan	-10.897
▁karşılaştı	-10.897
▁savaşları	-10.8971
▁sıradan	-10.8972
▁Karaman	-10.8973
▁Özerk	-10.8974
aba	-10.8979
▁Fırat	-10.8979
▁rivayet	-10.8979
▁Fre	-10.8982
▁Tele	-10.8983
▁seçimi	-10.8987
▁arttı	-10.8988
bot	-10.8988
▁Ok	-10.8989
▁Turgut	-10.8989
▁bant	-10.8992
▁Giresun	-10.8992
oma	-10.8993
▁Düşünce	-10.8994
▁inceleyen	-10.8995
Ay	-10.8996
say	-10.8999
▁gittiği	-10.9
amt	-10.9001
▁Almanyası	-10.9002
▁Stephen	-10.9007
▁bugüne	-10.9008
▁güvenilir	-10.9008
▁Ona	-10.9009
▁Kül	-10.901
▁ayrıntılı	-10.9011
▁ova	-10.9015
▁çevirmen	-10.9015
▁gelişmesi	-10.9016
▁güvenliği	-10.9019
▁ispat	-10.9022
▁Geniş	-10.9023
▁sağlamaktadır	-10.9023
▁edebilir	-10.9027
▁Bölgesel	-10.9029
▁Arif	-10.9032
▁maddeleri	-10.9032
▁dönmesi	-10.9032
▁teknikleri	-10.9033
▁Terakki	-10.9036
▁iktidarı	-10.9036
▁salgı	-10.9039
▁topraklarının	-10.9039
▁yaratıcı	-10.9041
nder	-10.9041
▁partisi	-10.9042
▁Kamu	-10.9043
▁Tunus	-10.9046
▁makinesi	-10.9047
▁yüzyıllarda	-10.9047
▁popülasyon	-10.9048
▁kulak	-10.9049
▁Diskografi	-10.9051
pol	-10.9051
▁Tibet	-10.9052
▁bırakarak	-10.9052
▁yaratma	-10.9053
oviç	-10.9053
▁yaralandı	-10.9054
▁iniş	-10.9057
▁Medya	-10.9057
▁tutum	-10.9059
▁saldırılar	-10.9061
▁mevki	-10.9063
▁ku	-10.9064
▁bilimkurgu	-10.9065
▁Bilge	-10.9066
▁öğrendi	-10.9068
Vi	-10.9069
▁kutusu	-10.907
▁mayın	-10.907
▁üyeliği	-10.9075
р	-10.9075
yâ	-10.9075
▁Walter	-10.9076
▁Matematik	-10.9077
▁zamanlı	-10.9077
▁Juan	-10.908
▁borç	-10.908
lıların	-10.9083
▁göstermek	-10.9083
bro	-10.9083
mb	-10.9084
▁Intel	-10.9085
▁etkisini	-10.9086
▁işareti	-10.9086
▁Alaca	-10.9089
▁Ron	-10.9091
▁Eu	-10.9092
▁geldiğini	-10.9093
▁roket	-10.9094
▁Hakan	-10.9094
tasyon	-10.9096
▁etmişti	-10.9098
▁Yön	-10.91
right	-10.91
not	-10.91
bü	-10.91
▁he	-10.9102
▁Ag	-10.9102
▁seçilmiş	-10.9103
▁Malta	-10.9106
▁bağırsak	-10.9106
▁demiştir	-10.9108
▁tüp	-10.911
▁MTV	-10.9114
▁sıkça	-10.9117
era	-10.9119
Ko	-10.9121
▁zar	-10.9124
day	-10.9127
▁futbolu	-10.9128
undan	-10.9128
▁formu	-10.9128
feld	-10.913
▁Rumen	-10.913
▁Başarıları	-10.9131
▁verildiği	-10.9132
▁devletlerin	-10.9135
▁benzeyen	-10.9137
▁Cengiz	-10.9137
▁Hırvat	-10.9141
▁firma	-10.9141
▁matematiksel	-10.9141
▁Şii	-10.9142
▁vitamini	-10.9143
kra	-10.9143
hid	-10.9144
▁tanımlama	-10.9145
dge	-10.9146
ücü	-10.9148
▁Ün	-10.9148
▁Bul	-10.9148
▁kentleri	-10.9149
▁Yaş	-10.9149
▁hukuku	-10.9151
▁örgütü	-10.9151
▁zeytin	-10.9151
!"	-10.9155
▁devamı	-10.9156
▁yüksektir	-10.9157
▁ham	-10.9159
sek	-10.9159
▁tarihçiler	-10.916
our	-10.9162
ojen	-10.9162
▁▁▁▁▁	-10.9163
▁Meydanı	-10.9166
▁akşam	-10.9168
▁mitolojisinde	-10.9168
▁sosyalizm	-10.9169
matik	-10.9171
tte	-10.9172
▁rejim	-10.9174
▁Biyo	-10.9174
▁kanıtlar	-10.9178
▁öğrencileri	-10.9178
▁kitabın	-10.9179
▁BBC	-10.9181
▁taksonlar	-10.9181
▁tehlikeli	-10.9182
▁karışık	-10.9185
▁bisiklet	-10.9185
▁Matt	-10.9187
▁öncelikle	-10.9193
▁Öğrenci	-10.9194
▁sayımlarına	-10.9197
▁Otto	-10.9197
▁motorlu	-10.9197
tah	-10.9197
▁Görev	-10.9198
▁Land	-10.9199
▁Seçim	-10.9199
▁arasından	-10.9203
▁tamamlandı	-10.9204
▁imkânı	-10.9205
▁kablo	-10.9209
▁Kırıkkale	-10.921
▁set	-10.921
▁Ü	-10.9211
▁Gitar	-10.9213
▁Air	-10.9216
▁kişiyi	-10.9219
▁Marx	-10.922
TA	-10.9221
▁negatif	-10.9222
bağ	-10.9223
▁Cam	-10.9223
sco	-10.9223
▁klibi	-10.9225
▁eleme	-10.9225
▁tarihe	-10.9226
▁uygulanması	-10.9227
▁Roger	-10.9228
▁kuvvetli	-10.923
▁söylediği	-10.9231
▁virüs	-10.9231
▁etkinlik	-10.9232
Ni	-10.9232
▁aç	-10.9233
▁Cer	-10.9239
▁Artvin	-10.924
▁Zafer	-10.9241
▁bulma	-10.9242
▁davul	-10.9244
▁Bekir	-10.9245
hel	-10.9246
▁arşiv	-10.9246
▁noktaları	-10.9247
▁kuşak	-10.9248
pra	-10.9248
▁verdikleri	-10.9248
▁kişiden	-10.9249
IC	-10.9249
▁kahve	-10.925
ي	-10.9253
▁sancak	-10.9254
▁Zu	-10.9261
▁yürütme	-10.9262
▁işlemci	-10.9263
▁Yunanlar	-10.9267
▁erişim	-10.9267
▁dramatik	-10.9269
▁düşünülen	-10.9269
▁tanımlamak	-10.927
▁uyarı	-10.9277
sızlık	-10.9277
▁Yar	-10.9279
▁Ertuğrul	-10.9283
▁izleyen	-10.9284
▁sok	-10.9284
▁biz	-10.9285
▁Hakları	-10.9287
▁FA	-10.9288
▁mühendislik	-10.9288
▁Tony	-10.929
▁şartları	-10.9292
▁takdirde	-10.9296
▁sezonunun	-10.9296
▁buğday	-10.9298
▁Farklı	-10.9298
▁Şair	-10.9298
▁ilave	-10.9298
▁başvuru	-10.9299
▁millet	-10.93
▁Fri	-10.93
▁yarattı	-10.9301
▁Odası	-10.9301
FF	-10.9305
▁kay	-10.9306
▁rolünü	-10.9306
▁şiirleri	-10.9308
▁Linux	-10.9308
▁Estonya	-10.9309
▁anlamıyla	-10.9311
▁Beyoğlu	-10.9312
▁olağanüstü	-10.9312
▁icat	-10.9313
▁yüklü	-10.9313
▁yatak	-10.9313
▁Hü	-10.9314
▁girme	-10.9314
▁familyasından	-10.9316
rie	-10.9318
▁yaşına	-10.9319
▁kurt	-10.9319
▁değiş	-10.9324
▁Villa	-10.9324
▁davran	-10.9325
▁rahatsız	-10.9326
▁eriş	-10.9327
▁Holding	-10.9327
▁Wil	-10.9328
▁hakimiyeti	-10.9328
▁isminin	-10.9328
▁Carlos	-10.9329
▁yoksa	-10.933
▁akarsu	-10.9332
git	-10.9334
şık	-10.9335
▁Kav	-10.9337
gos	-10.9339
▁üzüm	-10.9343
▁Say	-10.9344
▁Eser	-10.9344
▁mantar	-10.9345
Arapça	-10.9346
▁diz	-10.9347
▁posta	-10.9348
▁Ty	-10.9349
yr	-10.9351
▁Konstantin	-10.9353
▁Düz	-10.9355
▁konusudur	-10.9356
umu	-10.9357
▁mekân	-10.9357
▁başlamıştı	-10.9358
▁Sezen	-10.936
▁düzenlediği	-10.9362
▁büyüklüğü	-10.9363
▁yakından	-10.9366
▁koalisyon	-10.9371
▁af	-10.9375
▁kira	-10.9376
SP	-10.9377
▁hükümdar	-10.938
▁yoluna	-10.938
▁gelişmiştir	-10.9381
▁dönüşür	-10.9382
▁yıldan	-10.9385
▁ilaçlar	-10.9386
▁duvarları	-10.9386
▁banka	-10.9388
▁İlhan	-10.9388
▁taşın	-10.9389
▁barındıran	-10.939
chen	-10.9391
▁hakem	-10.9391
▁laboratuvar	-10.9394
meli	-10.9395
▁Doğum	-10.9396
−	-10.9401
▁geçirmek	-10.9401
▁kesiminde	-10.9401
▁oluşuyordu	-10.9402
▁durumun	-10.9403
▁optik	-10.9404
▁ağzı	-10.9406
▁Silah	-10.9407
▁geleneği	-10.9408
▁EP	-10.9411
ive	-10.9413
▁rekor	-10.9414
gram	-10.9415
м	-10.9416
kas	-10.9419
▁vazgeç	-10.9422
▁düşme	-10.9429
▁Jacques	-10.9429
takım	-10.9431
▁aykırı	-10.9432
ebilmek	-10.9432
nci	-10.9434
▁Ky	-10.9434
udur	-10.9444
▁Lev	-10.9444
▁maçlarını	-10.9444
…	-10.9446
▁tahrip	-10.9446
▁kelimesinden	-10.9446
▁olabileceğini	-10.9447
▁aktivist	-10.9449
▁topladı	-10.9449
▁yolunda	-10.9449
▁Fan	-10.9451
ons	-10.9459
▁Benzer	-10.9468
▁tabakası	-10.947
▁Kuru	-10.9472
▁eleştiriler	-10.9475
▁Sicilya	-10.9476
▁yüzlerce	-10.9477
abi	-10.9478
▁azınlık	-10.9481
▁Mimarlık	-10.9485
▁kör	-10.9488
▁silahlar	-10.9494
zlar	-10.9494
▁Ağır	-10.9495
▁sulama	-10.9496
▁Kulesi	-10.9496
bes	-10.95
▁Mike	-10.9501
▁başlık	-10.9509
▁avantaj	-10.9512
▁yükselme	-10.9513
▁işlevi	-10.9514
▁Koruma	-10.9516
▁krallık	-10.9518
▁tartışmalar	-10.952
▁Piyade	-10.9521
▁hastalığın	-10.9523
och	-10.9523
▁isyanı	-10.9523
▁oranla	-10.9523
▁katılır	-10.9523
▁Sab	-10.9524
▁han	-10.9525
▁güneybatı	-10.9526
sko	-10.9528
▁One	-10.9531
▁Siyaset	-10.9536
▁federal	-10.9536
▁torunu	-10.9536
▁izleyici	-10.9537
▁bilinmemektedir	-10.9537
vaz	-10.9538
Ga	-10.9539
fu	-10.9543
gh	-10.9543
kut	-10.9544
▁Dia	-10.9545
▁Güven	-10.9545
ebileceği	-10.9546
▁kasabası	-10.9547
▁Cel	-10.9547
▁Zeki	-10.9547
ille	-10.9548
fin	-10.9549
▁Ap	-10.9549
liyor	-10.955
▁Ereğli	-10.9551
▁Kolordu	-10.9551
▁Tah	-10.9553
RS	-10.9553
▁Teşkilatı	-10.9555
▁tanındı	-10.9555
▁askerlik	-10.9557
▁ex	-10.9557
▁problem	-10.9558
▁okur	-10.9559
cel	-10.9564
ABD	-10.9564
Co	-10.9564
Yunanca	-10.9565
▁giyen	-10.9566
cra	-10.9569
▁üyesidir	-10.9569
▁endüstrisi	-10.957
▁yüzyıllar	-10.9573
▁bayrak	-10.9574
▁Ansiklopedisi	-10.9575
▁Moğollar	-10.9575
▁çevirisi	-10.9578
▁Portakal	-10.9581
▁tamamlanan	-10.9582
▁gidil	-10.9582
▁şöyledir	-10.9583
▁basketbolcuları	-10.9584
▁Ülkede	-10.9584
üp	-10.9586
▁sağlama	-10.9587
▁çalışmaktadır	-10.9588
▁üzeri	-10.9591
eski	-10.9592
ona	-10.9592
▁mezhebi	-10.9592
ky	-10.9593
▁tatil	-10.9594
»	-10.9596
▁Dördüncü	-10.9596
▁elverişli	-10.9596
▁hoş	-10.9597
▁Ortak	-10.96
▁hamam	-10.9601
▁yeterince	-10.9612
▁İznik	-10.9612
özellikle	-10.9618
kuş	-10.9618
▁coğrafya	-10.9625
▁ucunda	-10.9626
▁hâkim	-10.9626
▁freguesia	-10.9627
▁Hayvan	-10.963
▁Çiçek	-10.9632
▁uzaklığı	-10.9635
▁kurumlar	-10.9636
ies	-10.9636
▁mücadelesi	-10.9639
▁Hac	-10.964
bgcolor	-10.9642
▁referans	-10.9642
▁pahalı	-10.9642
▁Plan	-10.9642
▁keskin	-10.9642
▁Marksist	-10.9643
▁okulun	-10.9644
▁Halife	-10.9648
▁Royal	-10.965
▁Baskı	-10.9651
stein	-10.9657
▁komutan	-10.9658
IP	-10.9659
▁Stra	-10.966
terapi	-10.966
▁aldılar	-10.9667
▁sürüm	-10.9667
▁üreticisi	-10.9669
▁komuta	-10.967
oy	-10.9672
doğan	-10.9673
▁anlatı	-10.9674
wan	-10.9676
▁Dairesi	-10.9677
▁dağı	-10.9678
▁başlığı	-10.9678
▁ilgisi	-10.9679
▁saldırıya	-10.9679
▁Hâ	-10.968
▁Öğretmen	-10.9682
inus	-10.9683
▁ışığı	-10.9686
▁sendromu	-10.9689
▁düşüncesi	-10.9689
kun	-10.9689
▁Bern	-10.9692
diler	-10.9692
▁çevrili	-10.9697
▁onay	-10.9697
ilerek	-10.9698
▁Michel	-10.9699
▁pre	-10.9699
▁verdiler	-10.9699
▁adresi	-10.9701
▁Nitekim	-10.9703
▁Almanlar	-10.9703
▁yüzü	-10.9703
▁adlandırılmış	-10.9707
▁ucu	-10.9708
▁devrinde	-10.9708
▁şefi	-10.9709
vat	-10.971
pre	-10.971
sse	-10.9713
yalı	-10.9717
▁Tokyo	-10.9719
rî	-10.9723
▁dilde	-10.9726
▁ilçesidir	-10.9727
▁Vali	-10.9727
yıp	-10.9728
çev	-10.973
CA	-10.973
laşır	-10.9731
▁sıralarda	-10.9732
▁Kalkınma	-10.9734
dım	-10.9735
▁Stone	-10.9735
▁Times	-10.9735
meden	-10.9736
▁sağladığı	-10.9737
▁Gine	-10.9738
▁içinden	-10.9739
▁dağılım	-10.9739
▁ikincisi	-10.974
▁Cap	-10.974
hm	-10.9741
▁hapishane	-10.9741
▁yuva	-10.9741
▁kül	-10.9741
▁yetkisi	-10.9742
oba	-10.9745
▁durma	-10.9748
▁pratik	-10.9749
▁Kosova	-10.9749
▁ilinde	-10.9751
▁Göktürk	-10.9755
▁Bla	-10.9756
▁Apple	-10.9758
▁duyduğu	-10.9762
▁sahası	-10.9762
▁sunar	-10.9762
▁satranç	-10.9764
▁topçu	-10.9765
▁yavru	-10.9776
ğini	-10.9776
▁Ermeniler	-10.9778
▁yapısal	-10.9778
▁tören	-10.9778
▁protokol	-10.9779
▁keşfi	-10.978
▁ilginç	-10.9781
ias	-10.9782
▁Augustus	-10.9785
▁örtü	-10.979
▁uyku	-10.9791
▁RNA	-10.9792
▁geride	-10.9795
ن	-10.9795
▁ihraç	-10.9795
▁işle	-10.9797
▁birleşerek	-10.9799
göl	-10.9799
▁mor	-10.98
▁politikaları	-10.9801
ndedir	-10.9801
▁verileri	-10.9802
▁Cat	-10.9807
▁Hareketi	-10.981
▁takviye	-10.9811
▁aşamasında	-10.9812
win	-10.9812
▁Kit	-10.9814
▁pil	-10.9816
mont	-10.9817
mera	-10.982
▁yöre	-10.9821
▁konut	-10.9823
end	-10.9823
▁Meryem	-10.9826
▁korsan	-10.9828
medi	-10.9829
▁yönetmenliğini	-10.9831
▁bi	-10.9832
▁strateji	-10.9833
▁forması	-10.9835
▁geçişi	-10.9839
Fa	-10.9841
▁birleşme	-10.9841
▁muhalif	-10.9842
▁tamir	-10.9843
▁Başlangıçta	-10.9843
▁ucuz	-10.9844
ulu	-10.9844
▁savunur	-10.9845
▁öncü	-10.9845
▁yazılır	-10.9849
▁kısmının	-10.9851
vit	-10.9853
▁Reich	-10.9857
▁gösterilen	-10.986
▁topraklar	-10.9861
▁Hak	-10.9861
▁dinsel	-10.9863
▁Hanlığı	-10.9864
▁kayded	-10.9865
▁tasarlanmış	-10.9865
▁mühendisi	-10.9867
▁kullanılma	-10.9869
üş	-10.987
▁Belgrad	-10.9873
▁Buz	-10.9873
▁çıkmaktadır	-10.9874
▁şansı	-10.9876
▁kaç	-10.9879
▁ülkelerinde	-10.988
▁olmaktan	-10.9881
▁yükselti	-10.9881
▁Cro	-10.9883
▁Tasarım	-10.9885
▁enstrüman	-10.9889
▁Meydan	-10.9895
morf	-10.9896
▁fonksiyonu	-10.9896
▁sağlanması	-10.9896
▁Neo	-10.9898
▁hâlinde	-10.99
▁devletleri	-10.9901
▁evi	-10.9902
▁Will	-10.9902
▁Bazen	-10.9911
▁Özbekistan	-10.9912
▁toplamı	-10.9914
▁kuzeybatı	-10.9914
koz	-10.9916
▁Bayram	-10.9917
▁içeri	-10.9917
hol	-10.9919
▁Serbest	-10.992
▁suretiyle	-10.992
▁çukur	-10.992
ense	-10.9921
▁Yöre	-10.9921
▁kaptan	-10.9921
▁üyelerinin	-10.9921
geliştirilmiştir	-10.9929
ktör	-10.9935
▁Company	-10.9936
▁Vladimir	-10.9936
▁Demokrasi	-10.9936
▁topraklarını	-10.9938
<	-10.994
▁tankları	-10.9945
▁öğrencilerin	-10.9946
ple	-10.9949
▁yöntemler	-10.995
▁Enver	-10.9951
▁uyuşturucu	-10.9951
▁Oğlu	-10.9951
çin	-10.9952
▁bulmuştur	-10.9952
▁ücretsiz	-10.9953
▁katılmış	-10.9953
▁Öykü	-10.9955
▁Milliyet	-10.9958
▁Belçikalı	-10.9958
▁Bölgede	-10.9958
▁elendi	-10.9959
▁kemer	-10.9959
rim	-10.9959
▁İbranice	-10.9965
▁Kırklareli	-10.9967
▁Tevfik	-10.9967
▁fakir	-10.9968
▁Şerif	-10.9968
▁yönetimine	-10.9968
▁kanadı	-10.997
▁aydın	-10.997
eus	-10.997
▁öğrenimini	-10.997
▁ani	-10.9972
rı	-10.9972
▁silindir	-10.9972
▁takımda	-10.9972
▁Ağaç	-10.9974
в	-10.9974
ical	-10.9981
▁Hristiyanlar	-10.9983
▁karayolu	-10.9984
▁açıklamıştır	-10.9987
▁işlev	-10.9987
▁Artık	-10.9988
▁OS	-10.9989
▁atılan	-10.9991
tip	-10.9992
▁tercüme	-10.9995
▁modeller	-10.9996
▁Francis	-10.9998
▁helikopter	-10.9999
▁Billboard	-10.9999
ington	-10.9999
fal	-11
▁yürüyüş	-11.0001
▁çek	-11.0004
▁kanseri	-11.0005
▁Nova	-11.0005
▁iyon	-11.0006
▁savundu	-11.0008
▁IP	-11.0009
▁festival	-11.0011
▁yolculuğu	-11.0011
▁France	-11.0012
▁bağışıklık	-11.0014
▁cüce	-11.0015
▁Mesih	-11.0015
▁Potter	-11.0015
emedi	-11.0016
▁Ray	-11.002
▁adıdır	-11.002
▁kıyılarında	-11.0023
pes	-11.0024
atör	-11.0025
geç	-11.0025
л	-11.0026
▁araştırmaları	-11.0028
▁cerrahi	-11.0029
▁sütun	-11.003
▁şov	-11.003
▁Başlıca	-11.003
▁fon	-11.0031
▁Young	-11.0032
▁ilkesi	-11.0033
▁yönetti	-11.0033
▁yöneticileri	-11.0035
▁kavga	-11.0035
▁gölge	-11.0038
▁koruyucu	-11.0039
ello	-11.004
▁başarıları	-11.0041
▁karşıt	-11.0042
▁kocası	-11.0043
▁masa	-11.0048
▁yükü	-11.0049
▁defter	-11.0049
▁Pasifik	-11.0049
▁tarzında	-11.0051
▁aslan	-11.0052
çay	-11.0054
üre	-11.0055
▁adanın	-11.0055
▁birine	-11.0056
▁yendi	-11.0059
▁kaçtı	-11.006
▁istediğini	-11.0064
▁cenaze	-11.0065
▁etmekte	-11.0065
▁Tümeni	-11.0065
▁sahneye	-11.0065
rif	-11.0065
▁deneysel	-11.0065
▁hece	-11.0067
▁hac	-11.0067
▁olmasıyla	-11.0067
lerarası	-11.0069
▁Kongo	-11.007
▁topluluklar	-11.0071
▁seçimler	-11.0071
▁kilo	-11.0078
▁zaferi	-11.008
stem	-11.0081
▁öte	-11.0084
▁plastik	-11.0085
▁verici	-11.0085
▁fethi	-11.0086
▁öldürdü	-11.0089
▁önderliğinde	-11.009
▁Valiliği	-11.009
;"	-11.0091
▁Out	-11.0091
▁düzensiz	-11.0091
▁oynar	-11.0092
▁Horasan	-11.0094
▁verilebilir	-11.0096
▁birbirleriyle	-11.0096
▁yap	-11.0099
▁görüşler	-11.01
▁tahtta	-11.01
λ	-11.0102
▁fikrini	-11.0103
▁Fox	-11.0104
▁arı	-11.0104
deniz	-11.0106
▁söylen	-11.0108
▁Adolf	-11.011
▁nüfuslu	-11.0111
▁gör	-11.0112
▁boyları	-11.0112
▁hassas	-11.0113
alis	-11.0114
▁yerden	-11.0121
▁Orkestrası	-11.0124
yerek	-11.0125
▁üreticileri	-11.0126
özü	-11.0127
mbo	-11.0128
▁adındaki	-11.0129
ب	-11.013
▁tankı	-11.013
▁yönü	-11.0131
▁ideoloji	-11.0136
▁tapınak	-11.0136
▁kazanır	-11.0137
▁güneye	-11.0137
▁Jüpiter	-11.0142
▁Ul	-11.0142
▁Söyle	-11.0142
▁albümler	-11.0143
▁terör	-11.0145
likle	-11.0147
▁konak	-11.015
▁açma	-11.0151
▁bey	-11.0152
▁röportaj	-11.0153
▁ücret	-11.0153
▁kaleci	-11.0153
▁yetişkin	-11.0156
▁Lisans	-11.016
▁şeklindeki	-11.0161
▁pan	-11.0162
▁yolunu	-11.0162
▁gerçekleştir	-11.0163
▁koyun	-11.0164
▁Yay	-11.0165
BA	-11.0166
▁disiplin	-11.0167
▁temin	-11.017
▁Eric	-11.0171
▁bürokrat	-11.0174
▁Antakya	-11.0174
▁organları	-11.0174
lular	-11.0177
▁altyapı	-11.0177
RA	-11.0179
rdi	-11.0179
▁onlar	-11.018
▁etken	-11.018
▁kut	-11.0181
ST	-11.0183
▁devamlı	-11.0187
▁zararlı	-11.019
▁fırtına	-11.019
▁istihbarat	-11.019
▁işkence	-11.019
▁reform	-11.019
▁elemanları	-11.0191
▁radyasyon	-11.0192
erler	-11.0192
▁yayılması	-11.0192
değiştirilmiştir	-11.0194
▁Sho	-11.0197
▁Sultanı	-11.0198
▁Göre	-11.0198
por	-11.0199
▁bozukluğu	-11.02
▁Ferdinand	-11.0206
▁bırakır	-11.0206
▁Kant	-11.0207
▁kişiliği	-11.0208
▁bölgesindeki	-11.0209
▁testi	-11.021
▁Hill	-11.0212
rah	-11.0216
▁sağlanır	-11.0216
dom	-11.0218
▁Bad	-11.0219
▁Programı	-11.0221
▁Frankfurt	-11.0222
▁saldırgan	-11.0223
▁yapacak	-11.0226
▁filozofları	-11.0227
▁takımlar	-11.0228
▁Kraliçe	-11.0229
metre	-11.0233
▁koru	-11.0233
sos	-11.0235
▁tümü	-11.0236
▁rüya	-11.0237
▁Oto	-11.0238
▁Samuel	-11.0238
▁Hell	-11.0241
▁şehridir	-11.0247
▁vezir	-11.0254
▁Harvard	-11.0254
▁oluşturmuştur	-11.0255
▁pat	-11.0256
▁kraliyet	-11.0257
▁Kişisel	-11.0258
▁vatandaşı	-11.0259
▁ulaşıl	-11.026
▁seviyesi	-11.0263
▁hayran	-11.0264
▁Kanat	-11.0264
▁kuşağı	-11.0267
▁kurgu	-11.027
ew	-11.0271
▁uzat	-11.0273
▁kuşu	-11.0274
▁müdürü	-11.0276
On	-11.0277
▁başa	-11.0279
▁atma	-11.0282
▁mo	-11.0283
▁Mit	-11.0284
▁Gre	-11.0288
▁sığ	-11.0288
beyaz	-11.0289
Bah	-11.0291
▁annesinin	-11.0295
▁arkadaş	-11.0297
▁öyküsü	-11.0299
kil	-11.0299
more	-11.0301
▁Yok	-11.0302
mâ	-11.0303
▁yayınları	-11.0305
▁nötron	-11.0306
▁Valisi	-11.0306
mini	-11.0307
▁Yahudilerin	-11.0307
▁fazladır	-11.031
ağın	-11.0312
yıl	-11.0316
▁ağa	-11.0317
▁penaltı	-11.0317
▁animasyon	-11.0319
▁Ağrı	-11.032
▁inanılır	-11.032
▁geçmişte	-11.0321
▁Jim	-11.0323
▁Kimi	-11.0323
▁Bou	-11.0325
▁profesörü	-11.0327
dılar	-11.0329
Qu	-11.0329
ebilmektedir	-11.0334
▁Elazığ	-11.0335
▁yerleşen	-11.0335
▁kavramlar	-11.0337
pal	-11.0337
▁bil	-11.0337
▁bakımdan	-11.0338
▁makamı	-11.0338
▁kalem	-11.0338
▁Leon	-11.034
▁Portekizli	-11.0343
▁durumdadır	-11.0344
▁nefes	-11.0345
▁renkleri	-11.0345
▁koleksiyon	-11.0347
▁bilme	-11.035
▁Çeçen	-11.0352
▁Hücre	-11.0352
▁azalma	-11.0353
▁gazı	-11.0353
▁belirtilen	-11.0353
▁şunları	-11.0356
▁Vatan	-11.0357
tiv	-11.0358
▁ayağı	-11.0359
▁Bruce	-11.036
▁gönder	-11.0364
▁Bernard	-11.0364
▁Cumhuriyetçi	-11.0366
▁Johnson	-11.0366
▁hakkını	-11.0368
▁uzmanı	-11.0368
▁monarşi	-11.0368
▁Eğitimi	-11.0368
▁anısına	-11.037
▁yansı	-11.0373
▁sanatları	-11.0378
▁içme	-11.0379
▁kelimesinin	-11.038
▁içerik	-11.0382
▁görevlisi	-11.0384
▁UNESCO	-11.0385
▁elçi	-11.0385
▁birliklerinin	-11.0387
▁taşıdığı	-11.0388
▁tersine	-11.0389
çılar	-11.0389
▁konusundaki	-11.0391
▁Efes	-11.0395
▁üretilir	-11.0396
pin	-11.0397
▁manevi	-11.0401
▁yükseklikte	-11.0402
▁Virginia	-11.0402
▁alay	-11.0402
▁kurgusal	-11.0403
▁bırak	-11.0403
▁Mühendislik	-11.0406
▁Sor	-11.0409
▁gibidir	-11.0413
▁fazlası	-11.0414
▁görünüm	-11.0415
▁Shakespeare	-11.0418
tina	-11.0423
▁Kredi	-11.0423
▁yaşamıştır	-11.0424
▁adası	-11.0425
mor	-11.0426
▁nem	-11.0428
▁geçim	-11.043
meleri	-11.0431
▁Kut	-11.0432
▁sevk	-11.0435
EM	-11.0437
▁oynama	-11.0438
Tu	-11.0439
▁genişliği	-11.0439
▁duyul	-11.044
▁aşağıda	-11.0441
▁hanedanı	-11.0443
▁kolları	-11.0443
ale	-11.0446
Lo	-11.0448
▁Deresi	-11.0448
▁kalite	-11.045
▁hazırladığı	-11.045
▁çözül	-11.045
▁tarla	-11.0451
▁Pin	-11.0452
▁Bat	-11.0452
▁dönüşü	-11.0455
▁bölünme	-11.0458
▁Bakü	-11.0458
▁House	-11.0459
ebilmesi	-11.0462
▁sınırında	-11.0464
▁Galler	-11.0465
eh	-11.0467
б	-11.0467
▁endüstriyel	-11.0467
▁açığa	-11.0468
▁stili	-11.0468
▁bağımlı	-11.0468
▁ilahi	-11.0469
▁yaşamın	-11.0469
▁Basın	-11.0472
tok	-11.0472
▁Salih	-11.0473
luğunu	-11.0476
▁Sınıf	-11.0477
ildiği	-11.0478
▁vakıf	-11.0484
▁hiper	-11.0484
▁taban	-11.0485
▁filminin	-11.0489
▁uyu	-11.049
ι	-11.0491
▁Sad	-11.0491
mper	-11.0493
▁dönüm	-11.0493
▁koy	-11.0493
▁izledi	-11.0495
▁tablosu	-11.0498
▁üçte	-11.05
▁vuruş	-11.0501
▁çizgisi	-11.0501
ılıp	-11.0504
▁Tü	-11.0505
▁ulaşmak	-11.0505
war	-11.0506
▁resimleri	-11.0508
▁Akın	-11.0509
▁yetki	-11.0512
▁göğüs	-11.0514
▁Fransızlar	-11.0515
▁malzemeler	-11.0516
▁parçacık	-11.0516
▁tanrıları	-11.0516
▁çıkıp	-11.0517
▁kayıtları	-11.0519
▁kaybetme	-11.0521
▁Ji	-11.0521
▁taç	-11.0522
ston	-11.0523
▁kabile	-11.0523
▁hit	-11.0525
▁kural	-11.053
▁Darbesi	-11.0533
▁Popüler	-11.0534
▁nefret	-11.0534
▁ateşi	-11.0534
▁öldüğü	-11.0535
▁İtalyanca	-11.0536
▁atıfta	-11.0539
▁gereklidir	-11.0541
▁içerisindeki	-11.0542
batı	-11.0544
lî	-11.0544
▁Kıyı	-11.0546
▁yollar	-11.0547
▁kurdular	-11.055
▁Standart	-11.055
▁Yakup	-11.0551
▁ilgisini	-11.0553
sındaki	-11.0554
ness	-11.0557
▁Sonunda	-11.056
▁Elektronik	-11.0561
▁halini	-11.0562
▁PKK	-11.0568
▁etkileyen	-11.0569
ırken	-11.0569
▁High	-11.0571
▁alfabe	-11.0573
▁satışa	-11.0573
▁doz	-11.0573
▁Allen	-11.0574
▁üretiminde	-11.0575
▁yöneten	-11.0577
▁Def	-11.0577
▁adaları	-11.0585
▁bağı	-11.0586
▁binalar	-11.0588
▁dikkatini	-11.0589
▁kültürünün	-11.059
▁esin	-11.0591
▁soruşturma	-11.0594
nov	-11.0596
kâ	-11.0597
▁böbrek	-11.06
▁sürdüren	-11.0603
▁Mardin	-11.0603
zin	-11.0605
▁gelişi	-11.0608
▁hazırladı	-11.0608
▁sevgi	-11.0608
▁karın	-11.0611
▁beklenen	-11.0612
▁araştırmacılar	-11.0615
▁Bizanslılar	-11.0616
▁Genelde	-11.0617
▁Hollywood	-11.0617
▁kritik	-11.0617
hum	-11.0617
Ti	-11.0619
▁geçirildi	-11.0619
▁tanımlanmıştır	-11.062
▁Tut	-11.062
▁iktidara	-11.0621
▁işlemler	-11.0621
abildiği	-11.0622
ل	-11.0622
cio	-11.0623
▁Orada	-11.0623
▁İlkokulu	-11.0625
▁verecek	-11.0626
▁kahramanı	-11.0628
▁Dere	-11.0633
çılık	-11.0633
▁tabanı	-11.0636
cur	-11.0638
▁gündeme	-11.0641
▁üçgen	-11.0642
▁renkler	-11.0643
▁tanrıça	-11.0643
▁Dü	-11.0644
sit	-11.0645
▁yazın	-11.0646
▁Cuma	-11.0647
▁görünümü	-11.0648
▁LGBT	-11.0651
▁şeridi	-11.0651
▁Vokal	-11.0652
▁Anayasası	-11.0657
▁dinler	-11.0658
▁İvan	-11.0658
onia	-11.066
maları	-11.066
▁Bölgenin	-11.0661
▁ligin	-11.0663
▁canlılar	-11.0663
▁imkân	-11.0666
▁don	-11.0666
baba	-11.0667
▁yuvarlak	-11.0668
▁İpek	-11.0668
▁Neden	-11.0668
▁Napoli	-11.0668
▁kimyager	-11.067
▁Okyanus	-11.0671
▁ajan	-11.0672
د	-11.0672
▁dersler	-11.0673
▁eğitimci	-11.0673
▁golü	-11.0673
▁köyüne	-11.0674
sever	-11.0674
▁deyişle	-11.0677
▁özelliğini	-11.0679
▁gönderdiği	-11.068
▁Wo	-11.0682
▁katil	-11.0683
▁göçmenler	-11.0684
▁Tapınağı	-11.0684
▁mevkiinde	-11.0685
ces	-11.0688
▁görünen	-11.0689
▁hayatının	-11.0689
▁tümüyle	-11.069
▁oluştuğu	-11.0692
rad	-11.0692
lov	-11.0693
▁görüşmeler	-11.0696
lasyon	-11.0696
▁Senfoni	-11.0697
▁Koreli	-11.0699
▁kayda	-11.07
▁İlgili	-11.0701
▁eserlerini	-11.0703
▁bırakmıştır	-11.0705
▁yapının	-11.0705
▁görüşme	-11.0708
▁kalesi	-11.071
abilme	-11.0712
▁yapıların	-11.0713
kop	-11.0715
▁kentler	-11.0717
▁grubuna	-11.0719
▁Darwin	-11.0719
▁eklem	-11.0721
kça	-11.0726
▁tekne	-11.0728
▁Yasası	-11.0729
▁dilin	-11.073
cul	-11.0733
▁kaybeden	-11.0735
▁yanlısı	-11.0735
▁Köln	-11.0735
▁sahte	-11.0736
▁İzmit	-11.0736
yat	-11.0737
▁Wilson	-11.0737
▁yayımlanmıştır	-11.0737
▁kapasite	-11.0742
ğında	-11.0744
▁ahlak	-11.0748
▁dağılması	-11.0748
▁Hasta	-11.0749
▁ısrar	-11.0751
hn	-11.0752
▁yolla	-11.0758
ırlar	-11.0758
▁semtinde	-11.0759
▁saltanatı	-11.076
fat	-11.076
▁çalışırken	-11.0761
▁ardı	-11.0764
▁Lin	-11.0765
▁ettirdi	-11.0766
ost	-11.0767
rel	-11.0768
▁maaş	-11.077
▁içe	-11.0772
lüğe	-11.0772
▁tüccar	-11.0772
İs	-11.0773
▁kategori	-11.0775
▁eyaletine	-11.0778
▁arzu	-11.0779
fik	-11.078
▁izler	-11.0781
SO	-11.0782
etik	-11.0785
eder	-11.0786
isti	-11.0789
nen	-11.0789
ο	-11.079
▁açıklandı	-11.0792
▁yıldızların	-11.0796
▁yenilgiy	-11.0796
▁bulunmakta	-11.0796
▁Kayıt	-11.0797
mayan	-11.0797
▁José	-11.0804
▁şairler	-11.0804
▁göçebe	-11.0805
▁Padişah	-11.0806
bili	-11.0809
▁İşleri	-11.0809
ço	-11.082
ılmıştır	-11.082
aga	-11.0821
▁rüzgar	-11.0821
▁cihaz	-11.0824
▁edin	-11.0829
▁Vila	-11.0829
▁günlerde	-11.083
ânî	-11.083
▁Peri	-11.0831
▁Proje	-11.0831
▁Sand	-11.0831
lüğün	-11.0833
▁muhafaza	-11.0833
zim	-11.0834
hos	-11.0838
▁denizaltı	-11.0839
MP	-11.0842
▁faaliyetler	-11.0842
▁yapısını	-11.0843
▁divan	-11.0845
▁haklarını	-11.0845
▁finalinde	-11.0847
▁kenarında	-11.085
düz	-11.0852
▁Dream	-11.0854
▁niteliği	-11.0854
▁çaplı	-11.0855
▁evre	-11.0855
gazi	-11.0855
▁Power	-11.0856
▁köyde	-11.0858
▁materyal	-11.086
▁dere	-11.0861
ilebilir	-11.0864
▁Danimarkalı	-11.0864
▁Rub	-11.0867
▁Kâ	-11.0871
▁nahiye	-11.0871
▁ilçeye	-11.0872
▁isimdir	-11.0872
▁Bundesliga	-11.0872
▁kuzeydoğu	-11.0873
▁yayılan	-11.0873
heim	-11.0874
▁Usta	-11.0875
▁ruhsal	-11.0878
▁→	-11.0882
▁içerdiği	-11.0886
CH	-11.0888
▁göller	-11.0888
▁bağlar	-11.089
▁Fel	-11.0891
▁hükûmetinin	-11.0891
▁yönlü	-11.0893
▁birincil	-11.0894
▁boşluk	-11.0898
cılığı	-11.0898
▁gelin	-11.0899
Osmanlı	-11.09
tör	-11.09
▁birimler	-11.0901
yolu	-11.0904
▁nemli	-11.0904
▁günleri	-11.0905
▁Atlantik	-11.0907
▁Niğde	-11.0907
▁bronz	-11.0907
nom	-11.0907
yacağı	-11.0909
▁Levent	-11.0909
▁nöro	-11.091
▁taşınması	-11.0911
▁bağlanır	-11.0911
▁oluş	-11.0912
ibi	-11.0912
▁Prix	-11.0912
▁ışın	-11.0914
▁tuttu	-11.0919
▁oksit	-11.0923
▁etkinlikler	-11.0926
▁kariyerinin	-11.0928
▁heykeli	-11.0928
mber	-11.0928
daha	-11.093
▁Milano	-11.0934
▁Sav	-11.0936
tarak	-11.0936
yorum	-11.0939
▁sayısını	-11.0939
▁Suresi	-11.094
▁tahsis	-11.0941
rid	-11.0944
▁temsilcileri	-11.0944
gr	-11.0946
▁Milliyetçi	-11.0947
▁etmesini	-11.0948
▁ihracat	-11.0949
▁müttefik	-11.0949
raz	-11.0951
nâme	-11.0954
▁Asıl	-11.0956
▁süs	-11.0957
▁referandum	-11.0959
▁Heinrich	-11.0959
▁İskilip	-11.0959
▁sevdiği	-11.0963
vas	-11.0965
▁Boyu	-11.0965
▁uygulamaya	-11.0965
▁ilkeleri	-11.0972
▁yasaları	-11.0975
▁bakteriler	-11.0975
▁Aristo	-11.0976
▁Jersey	-11.0976
▁gözden	-11.0976
▁dergisinin	-11.0977
▁sattı	-11.0977
▁Renk	-11.098
▁anlatım	-11.0982
▁direkt	-11.0983
çak	-11.0985
leşir	-11.0989
▁Varlık	-11.0989
▁tra	-11.0993
▁göstermiş	-11.0995
▁pilotu	-11.0995
▁cadde	-11.0996
▁çeşidi	-11.0998
pet	-11.0998
▁Nikola	-11.0999
▁Sudan	-11.1003
gir	-11.1005
▁öneri	-11.1007
fir	-11.1008
olojik	-11.1009
▁Yayla	-11.101
▁trafik	-11.1011
dr	-11.1015
Ve	-11.1018
▁sö	-11.1019
▁yazılımı	-11.1022
▁Başarı	-11.1023
ruk	-11.1024
▁cismin	-11.1024
Star	-11.1025
▁Afyonkarahisar	-11.1028
▁Siyasal	-11.1028
alp	-11.1029
▁belirlenir	-11.1029
▁Kaymakamlığı	-11.1032
▁Bağımsız	-11.1033
▁finansal	-11.1034
ük	-11.1034
▁Fars	-11.1038
▁Şişli	-11.1038
ati	-11.1039
ruh	-11.1039
▁alırlar	-11.104
vor	-11.1041
▁yıldızın	-11.1045
▁ilindeki	-11.1045
luğun	-11.1045
▁NASA	-11.1046
sten	-11.1046
▁Sı	-11.1047
▁dağıtım	-11.1047
▁Meksikalı	-11.1048
▁yapılabilir	-11.1048
▁alıntı	-11.1052
▁desteğini	-11.1057
▁Harbiye	-11.1058
itz	-11.1058
▁edilmesini	-11.1058
▁bütçe	-11.1059
▁aldıkları	-11.1059
▁Tip	-11.1059
▁DC	-11.1061
▁Yıllar	-11.1062
▁başından	-11.1062
▁Çalışmaları	-11.1062
▁numaraya	-11.1063
▁Isparta	-11.1064
uma	-11.1064
▁açılış	-11.1064
▁Çetin	-11.1064
▁fırın	-11.1067
▁çekme	-11.1067
▁Nadir	-11.1067
▁diplomatik	-11.1069
▁incelenmesi	-11.107
ira	-11.107
▁biten	-11.107
▁albümünün	-11.107
▁dokusu	-11.1071
▁Mun	-11.1072
aff	-11.1073
▁çağrı	-11.108
▁riski	-11.1081
▁gidip	-11.1081
▁zevk	-11.1081
▁Ramazan	-11.1081
ick	-11.1083
▁veriler	-11.1085
▁yerleşmiş	-11.1087
▁Hindu	-11.1087
▁faktörler	-11.1091
avi	-11.1097
yazar	-11.1103
▁sürece	-11.1103
yim	-11.1103
▁zamanların	-11.1107
▁yaklaşımı	-11.1108
▁Libya	-11.1111
▁unvan	-11.1111
▁dis	-11.1112
▁Benim	-11.1112
▁iskelet	-11.1114
▁figür	-11.1115
▁defnedildi	-11.1116
▁tamam	-11.1118
vir	-11.1122
▁Nil	-11.1123
▁Rou	-11.1124
▁Araç	-11.1128
▁Atom	-11.1131
▁yazında	-11.1131
▁dizinin	-11.1133
RAM	-11.1133
▁Şey	-11.1133
▁Lizbon	-11.1134
▁giyme	-11.1135
▁ilkokul	-11.1136
▁süredir	-11.1137
▁kapan	-11.1139
▁Araplar	-11.114
▁Homo	-11.114
gür	-11.1142
▁heyeti	-11.1144
▁Ant	-11.1144
uro	-11.1145
▁Steven	-11.1145
▁kul	-11.1146
ão	-11.1149
▁saldırdı	-11.115
▁Bos	-11.115
CC	-11.1151
amp	-11.1152
▁Cermen	-11.1153
▁Aş	-11.1153
▁Franklin	-11.1154
▁etkinliği	-11.1154
▁grupların	-11.1154
▁köşesinde	-11.1156
şer	-11.1156
▁moleküler	-11.1156
▁ayının	-11.1158
▁seçilir	-11.1161
▁geçirir	-11.1161
▁tap	-11.1164
ole	-11.1165
▁çizim	-11.1166
▁karasal	-11.1167
▁Alex	-11.1168
bak	-11.1169
▁anlaşılmaktadır	-11.117
▁türbe	-11.1171
▁yedinci	-11.1171
▁Mikro	-11.1171
▁şeytan	-11.1171
▁şiirler	-11.1174
▁Den	-11.1175
▁Sat	-11.1175
▁sürmektedir	-11.1175
▁kullanmaktadır	-11.1175
▁başarıyla	-11.1177
▁araştırmacı	-11.1179
▁egemenliğine	-11.1182
▁hacim	-11.1184
▁güçler	-11.1187
▁Arkeoloji	-11.1189
▁ormanları	-11.1189
▁Bayramı	-11.1191
liyordu	-11.1191
▁Rio	-11.1193
▁Melek	-11.1193
▁kule	-11.1196
▁Resimler	-11.1197
▁çıkarılması	-11.1198
rol	-11.1198
▁zinciri	-11.12
▁Ob	-11.1201
▁parçasıdır	-11.1201
▁yılan	-11.1201
▁haberi	-11.1201
▁seviyede	-11.1204
lerindendir	-11.1205
▁karaciğer	-11.1205
▁Lewis	-11.1205
▁bahseder	-11.1206
▁elinden	-11.1206
▁Dis	-11.1207
▁terfi	-11.1207
▁kalarak	-11.1209
▁kampanya	-11.1211
▁evren	-11.1213
▁olun	-11.1214
▁başar	-11.1215
▁bozulma	-11.1215
ett	-11.1218
▁Ang	-11.122
▁Kuruluş	-11.1221
▁Şirket	-11.1223
▁White	-11.123
▁alanının	-11.1233
▁açıklaması	-11.1233
▁Karar	-11.1235
▁tanıt	-11.1235
▁belirlenmesi	-11.1237
▁kavramları	-11.1239
melidir	-11.124
▁Lincoln	-11.1241
▁Şanlıurfa	-11.1241
▁Karşıyaka	-11.1241
▁izleme	-11.1241
▁şifre	-11.1244
▁ekonomist	-11.1246
oş	-11.1249
▁hafıza	-11.1251
▁Sasani	-11.1251
▁katılım	-11.1256
▁ağaçları	-11.1259
▁Gazze	-11.126
▁saz	-11.1261
▁Maden	-11.1263
▁Kök	-11.1264
leşmesi	-11.1264
▁özgürlüğü	-11.1265
▁Gü	-11.1266
▁İşte	-11.1275
▁yoğunluk	-11.1276
▁foto	-11.1277
▁kedi	-11.1277
▁okunur	-11.1278
▁Düş	-11.1279
▁eşya	-11.1279
para	-11.128
bis	-11.1288
▁sanatçının	-11.1289
▁yağışlı	-11.1289
▁çeşme	-11.129
▁astronomi	-11.1293
▁savaştan	-11.1294
gö	-11.1295
▁azdır	-11.1295
▁İskenderiye	-11.1298
▁sesli	-11.1299
▁kelimeler	-11.13
▁Aristoteles	-11.1301
▁eserin	-11.1301
dro	-11.1302
▁geçit	-11.1303
▁Kalp	-11.1304
▁yaşamaya	-11.1304
▁sektörü	-11.1308
kos	-11.1308
▁kuzeybatısında	-11.1309
abileceğini	-11.131
▁çekilme	-11.1312
▁okun	-11.1315
▁kurtarma	-11.1316
▁Cihan	-11.1317
sem	-11.1317
▁batıya	-11.132
▁artı	-11.1321
ester	-11.1321
ime	-11.1327
▁Haçlılar	-11.1327
uyordu	-11.1327
leştirilmesi	-11.1328
Har	-11.133
▁Chelsea	-11.133
▁sebze	-11.1331
▁getirme	-11.1332
▁nişan	-11.1333
▁Mez	-11.1334
▁romantik	-11.1337
▁ötesinde	-11.1338
orta	-11.134
zy	-11.1347
▁inter	-11.1347
▁Doktor	-11.1347
▁Tarihsel	-11.1348
γ	-11.1348
▁Memlûk	-11.1349
▁iğne	-11.1349
▁rahip	-11.1349
▁Dark	-11.1349
▁fotoğrafçı	-11.1349
▁kesinlikle	-11.1349
▁yenildi	-11.135
▁Oyuncular	-11.1351
▁ülkesinde	-11.1351
▁İsrailli	-11.1352
▁tutmak	-11.1354
▁başkanlığında	-11.1355
üğü	-11.1358
▁Sony	-11.1359
ij	-11.136
ome	-11.136
▁yapmayı	-11.136
▁dön	-11.1361
▁simge	-11.1361
▁Fran	-11.1363
▁çıkmaya	-11.1364
▁çöz	-11.1365
▁milyondan	-11.1365
ciliği	-11.1365
▁Gelibolu	-11.1367
▁Çarşamba	-11.1367
▁öngörü	-11.1367
▁bakıldığında	-11.1367
▁Sınır	-11.1367
▁oyuna	-11.1368
▁Yi	-11.137
▁hormon	-11.1371
▁oyunun	-11.1371
▁sim	-11.1372
▁müşteri	-11.1373
▁bölgeden	-11.1375
ndi	-11.1375
cor	-11.1377
▁Alevi	-11.1377
▁sığın	-11.1377
▁güneybatısında	-11.1379
▁hareketin	-11.1379
▁Arı	-11.1381
▁oluştururlar	-11.1381
idi	-11.1382
oo	-11.1382
▁Coğrafi	-11.1385
laşması	-11.1385
▁düşüş	-11.1385
▁sınav	-11.1387
▁yasama	-11.1387
▁türün	-11.1388
▁kadının	-11.1389
▁bilinç	-11.1391
▁gençlik	-11.1392
▁içki	-11.1393
▁yetkili	-11.1395
▁suları	-11.1397
▁yapıtları	-11.1401
‎	-11.1403
ô	-11.1403
▁enfeksiyon	-11.1408
▁Marcus	-11.1408
▁çekilmiştir	-11.1409
à	-11.1411
ill	-11.1412
▁Şeker	-11.1413
▁Parlamentosu	-11.1413
▁Tuz	-11.1414
▁Albay	-11.1414
▁azından	-11.1418
▁eksen	-11.142
▁boyutu	-11.142
▁Mik	-11.142
▁radikal	-11.1421
▁Yüzölçümü	-11.1421
klerini	-11.1423
▁Alanya	-11.1424
EN	-11.1424
▁mahallenin	-11.1425
sindeki	-11.1425
ug	-11.1425
▁ülkedeki	-11.1427
Rusça	-11.1428
▁Şirketi	-11.1428
▁Efe	-11.1429
▁tarımsal	-11.1431
hit	-11.1431
▁Diş	-11.1432
trop	-11.1436
▁depolama	-11.1437
▁tasavvuf	-11.1439
▁×	-11.1439
▁Tok	-11.1439
▁Şan	-11.144
llo	-11.144
▁Ot	-11.1441
▁odası	-11.1442
Hi	-11.1444
▁genişleme	-11.1444
▁uçağın	-11.1447
▁Leh	-11.1447
▁ikamet	-11.1448
▁standardı	-11.1448
eau	-11.1448
▁anlamlı	-11.1449
▁İncil	-11.145
▁Asker	-11.145
▁kontrolünü	-11.1451
Dr	-11.1451
▁Porto	-11.1451
▁yıllara	-11.1451
▁takvim	-11.1451
▁koşu	-11.1452
▁kafası	-11.1452
Eski	-11.1454
eng	-11.1454
time	-11.1456
▁modül	-11.1456
▁maksimum	-11.1457
▁yüzölçüme	-11.1457
▁toplumu	-11.1458
▁François	-11.1458
vent	-11.1458
▁Sancağı	-11.1458
▁oluşturulmuştur	-11.1459
▁başlayıp	-11.1459
ûn	-11.1459
▁Kö	-11.1461
▁Yıllık	-11.1462
▁kurarak	-11.1463
Pe	-11.1464
adı	-11.1464
▁nesneler	-11.1465
kum	-11.1466
▁alet	-11.1468
▁buluş	-11.1468
cent	-11.1468
lle	-11.1469
▁Sure	-11.147
▁Bina	-11.1475
▁Küresel	-11.1477
▁Arsenal	-11.1477
▁alanın	-11.148
▁döngü	-11.148
▁istatistikleri	-11.1482
atlar	-11.1485
cz	-11.1485
sat	-11.1487
▁boşluğu	-11.1489
▁davranışları	-11.1489
▁River	-11.149
▁alanındaki	-11.1491
▁Yağ	-11.1491
▁Fikret	-11.1494
cin	-11.1494
amamıştır	-11.1495
▁kapak	-11.1498
▁Dönemin	-11.1498
▁Dön	-11.1499
▁öğrenme	-11.1499
▁Kadı	-11.1501
▁moda	-11.1506
ilik	-11.1508
▁Res	-11.1511
▁mizah	-11.1513
▁vasıtasıyla	-11.1514
▁başkanlığını	-11.1514
alizm	-11.1519
▁yayla	-11.152
▁kilit	-11.152
▁Seri	-11.1524
▁arazisi	-11.1526
uch	-11.1526
▁Up	-11.1527
▁ölür	-11.1529
▁Soy	-11.1529
▁sınıflandırıl	-11.1531
▁Jon	-11.1532
▁sonuçlanan	-11.1534
▁alışveriş	-11.1536
▁simgesi	-11.1539
▁araştır	-11.1541
▁indiril	-11.1541
▁Bank	-11.1542
lıktan	-11.1544
ets	-11.1544
▁Fon	-11.1544
▁yararlı	-11.1545
fur	-11.1546
▁Uzak	-11.1548
lemiş	-11.1548
▁Saha	-11.1549
▁itiraz	-11.1549
▁sivri	-11.1549
▁gecesi	-11.155
rarak	-11.1551
▁Mos	-11.1554
▁şartlar	-11.1555
▁olabilecek	-11.1555
mine	-11.1556
▁tetik	-11.1556
▁Bilimsel	-11.1558
▁geliştirmek	-11.1562
▁Metro	-11.1562
îr	-11.1563
him	-11.1566
▁sağlıklı	-11.1567
▁Kahraman	-11.1568
▁tahliye	-11.1568
▁belediyesinde	-11.157
▁süresince	-11.157
▁meta	-11.1572
▁maçları	-11.1573
▁seferleri	-11.1574
aret	-11.1574
LA	-11.1576
roz	-11.1576
bilimci	-11.1576
▁kayıtlarda	-11.1577
has	-11.1581
▁ilgilidir	-11.1581
▁Sp	-11.1582
▁Bahçe	-11.1583
▁Bro	-11.1583
▁Bağımsızlık	-11.1583
▁Anton	-11.1583
▁okula	-11.1584
▁Jr	-11.1584
▁gölü	-11.1585
▁Engin	-11.1585
▁tut	-11.1586
▁Yalçın	-11.1586
▁nüfuz	-11.1586
▁Taksim	-11.1587
▁sağlayacak	-11.1587
▁akışkan	-11.1589
▁sürülen	-11.1589
▁üçlü	-11.159
▁eksik	-11.1591
▁Las	-11.1591
▁Nikolay	-11.1595
▁duyar	-11.16
lob	-11.1601
▁sahiptirler	-11.1602
oni	-11.1604
▁sanılmaktadır	-11.1605
▁keman	-11.1606
▁suda	-11.1609
▁yıkılması	-11.1609
▁unsur	-11.1612
▁düzeyi	-11.1613
▁bulunduğunu	-11.1617
▁Köprü	-11.162
▁Türbesi	-11.162
▁hareketinin	-11.162
▁Victoria	-11.162
eğin	-11.1622
▁Norveçli	-11.1624
osu	-11.1624
▁üs	-11.1625
▁büyüyen	-11.1626
▁Dalı	-11.1627
▁uyan	-11.1631
▁aralık	-11.1631
riz	-11.1632
▁etmesine	-11.1632
leyip	-11.1634
gs	-11.1634
amayan	-11.1634
▁plaka	-11.1634
▁kurmuş	-11.1639
▁Jandarma	-11.1642
▁Linnaeus	-11.1642
▁Milletvekili	-11.1642
▁Ernst	-11.1642
ndadır	-11.1644
▁düşmüştür	-11.1644
▁iade	-11.1646
▁State	-11.1648
▁sayımı	-11.1651
▁direnç	-11.1652
▁güne	-11.1653
uncu	-11.1654
gas	-11.1654
▁Meta	-11.1655
âb	-11.1657
▁uygulanır	-11.1657
AM	-11.1658
▁çocuğun	-11.1658
▁Pınar	-11.166
▁Kitabevi	-11.1661
▁Topkapı	-11.1661
▁sözlü	-11.1662
▁evine	-11.1663
üdür	-11.1664
▁İnşaat	-11.1666
▁rejimi	-11.1666
yip	-11.1666
diğinde	-11.1668
gus	-11.1672
▁zirve	-11.1673
▁Balık	-11.1676
▁dansçı	-11.1676
▁müziğini	-11.1679
▁sil	-11.1679
▁mısır	-11.1679
▁Fatma	-11.1681
▁Cur	-11.1682
▁papa	-11.1685
▁markası	-11.1686
▁Kolombiya	-11.1692
EL	-11.1694
▁buradaki	-11.1694
▁desteklemek	-11.1694
▁Messi	-11.1694
rap	-11.1695
Tanrı	-11.1695
IN	-11.1699
▁Sedat	-11.17
▁Uçak	-11.1702
tam	-11.1706
▁sonucuna	-11.1706
▁havada	-11.1708
lığının	-11.1709
▁Im	-11.1711
▁husus	-11.1714
▁haftalık	-11.1715
gol	-11.1715
tıcı	-11.1716
▁hâle	-11.1716
▁elektromanyetik	-11.1717
▁düzlem	-11.1717
▁sayısız	-11.1719
▁formasını	-11.1719
▁vefat	-11.1719
▁bireyin	-11.172
▁tarafsız	-11.172
lf	-11.1722
▁üretir	-11.1724
▁gerektirir	-11.1725
▁Lü	-11.1725
▁kışın	-11.1726
▁olurken	-11.1729
▁çam	-11.173
▁tersi	-11.173
▁katkısı	-11.1732
▁Özgürlük	-11.1737
▁Gran	-11.1737
▁dalları	-11.1737
▁ayrımı	-11.1738
▁ordusuna	-11.1738
▁Budist	-11.1739
▁Monte	-11.1742
leştirilmiştir	-11.1743
▁gücünün	-11.1743
▁geçirme	-11.1745
▁aşık	-11.1746
ux	-11.1746
▁kazanması	-11.1747
▁mide	-11.1747
▁çiz	-11.175
▁boyutları	-11.175
▁inanan	-11.1751
▁düzeyinde	-11.1751
▁çiftlik	-11.1752
▁bulgular	-11.1753
nge	-11.1753
▁hesabı	-11.1754
▁klinik	-11.1754
▁olmadı	-11.1755
▁üretildi	-11.1755
Kon	-11.1755
▁fonksiyon	-11.1756
▁sürdüğü	-11.1756
▁sakin	-11.1756
▁Sait	-11.1756
▁İlköğretim	-11.1756
▁Solo	-11.1758
▁bilen	-11.176
eğe	-11.176
▁düş	-11.1763
▁hoca	-11.1765
▁Fra	-11.1766
▁görece	-11.1769
formasyon	-11.1769
▁dünyayı	-11.1769
▁Copa	-11.177
▁çevrilidir	-11.177
▁inanış	-11.1771
▁hareketler	-11.1771
▁Dergi	-11.1771
book	-11.1771
▁başarılar	-11.1772
▁katılması	-11.1773
▁düşünülür	-11.1773
▁çember	-11.1773
AF	-11.1775
▁duygusal	-11.1775
▁Yeniden	-11.1775
σ	-11.1776
▁VII	-11.1777
▁soyut	-11.1778
▁şekildedir	-11.1778
▁hanedan	-11.1779
▁Andrew	-11.1779
▁Giriş	-11.1781
▁Bru	-11.1782
▁üniversitesi	-11.1785
▁noktasında	-11.1785
▁okullar	-11.1787
cro	-11.1789
ET	-11.179
▁denetim	-11.179
▁çekirdeği	-11.1792
şehir	-11.1794
▁uçaklar	-11.1795
▁gez	-11.1795
▁turistik	-11.1795
got	-11.1798
▁Qua	-11.18
▁çarp	-11.18
▁düzenlenmesi	-11.1803
anti	-11.1804
▁indir	-11.1805
▁Kıpçak	-11.1805
out	-11.1806
vy	-11.1806
▁görülme	-11.1808
▁Yap	-11.181
▁Adil	-11.1811
▁kumaş	-11.1811
▁School	-11.1812
loji	-11.1812
▁FK	-11.1812
erkek	-11.1813
elle	-11.1813
▁Batılı	-11.1813
▁keçi	-11.1813
mark	-11.1813
▁geliştiril	-11.1813
▁bölgelere	-11.1813
▁mekaniği	-11.1814
▁bölümüne	-11.1816
ağaç	-11.1816
▁Ortalama	-11.1816
▁makam	-11.1817
▁koruması	-11.1818
▁South	-11.1818
▁Devrimci	-11.1818
▁otuz	-11.1818
▁yazarın	-11.1819
▁şampiyonluğunu	-11.1821
▁çıkaran	-11.1821
▁Seyyid	-11.1823
▁çevresel	-11.1825
▁Hy	-11.1826
▁metredir	-11.1828
▁sağlan	-11.1828
▁vaka	-11.1831
▁İçişleri	-11.1833
▁olmuşlardır	-11.1836
▁Your	-11.1839
▁hâli	-11.184
▁ağaçlar	-11.184
▁uyma	-11.1842
▁Bahar	-11.1844
▁fırsatı	-11.1844
▁Cemil	-11.1847
▁kaldırma	-11.1848
▁Çankırı	-11.1849
▁amcası	-11.1849
▁belirler	-11.1849
▁yoksun	-11.185
ico	-11.1852
pha	-11.1852
▁Erdem	-11.1852
▁faaliyetlerini	-11.1856
▁alırken	-11.1859
▁hatırla	-11.1859
▁bakanı	-11.1859
▁müzesi	-11.186
rich	-11.1862
▁Noel	-11.1862
▁çıkarmak	-11.1862
king	-11.1865
▁Pap	-11.1866
PS	-11.1867
▁Senaryo	-11.1868
▁yukarıda	-11.1868
▁böcek	-11.1869
▁Gla	-11.1872
nova	-11.1872
▁sembol	-11.1877
▁çalışmış	-11.1878
abildi	-11.1878
▁hazine	-11.1878
▁yunus	-11.1878
CO	-11.1879
▁pompa	-11.1879
NT	-11.188
▁yıllardan	-11.1883
▁va	-11.1883
▁bulundukları	-11.1883
▁Aşağıdaki	-11.1883
э	-11.1887
▁yaprakları	-11.1888
▁sadık	-11.1889
▁Open	-11.189
▁Kızılderili	-11.1891
yel	-11.1894
oth	-11.1895
▁Flor	-11.1896
▁halı	-11.1897
▁Günümüz	-11.1902
kış	-11.1902
▁▁▁▁▁▁▁▁▁▁▁▁▁▁	-11.1903
▁kanı	-11.1904
▁sorumluluk	-11.1905
▁Endüstri	-11.1906
▁Pokémon	-11.1906
▁mağlubiyet	-11.1906
▁öfke	-11.1906
▁post	-11.1907
▁yatay	-11.1908
▁hayvanları	-11.1908
▁Karabağ	-11.1908
phe	-11.191
sif	-11.1914
▁taraftar	-11.1917
▁programlar	-11.1919
▁yaparlar	-11.1919
▁Savaşın	-11.192
▁Kaş	-11.192
Pi	-11.1922
▁türlerinin	-11.1922
▁girişimleri	-11.1926
▁Truva	-11.1926
▁Inc	-11.1926
▁plazma	-11.1927
▁etkilenen	-11.1929
gerçekleştirdiği	-11.1929
izmi	-11.193
▁Antarktika	-11.1931
▁nota	-11.1931
pper	-11.1931
▁teması	-11.1932
▁bölümünün	-11.1934
▁Luc	-11.1936
▁cemaat	-11.1938
▁mar	-11.1939
▁neo	-11.1939
▁Müslümanların	-11.194
▁Gir	-11.1941
▁gezegenin	-11.1941
▁propaganda	-11.1941
▁büyüktür	-11.1942
▁Anthony	-11.1944
▁Stüdyo	-11.1944
▁köpeği	-11.1944
▁şikayet	-11.1944
▁Nükleer	-11.1945
cısı	-11.1946
▁Song	-11.1947
▁taşıyıcı	-11.1948
▁atar	-11.1952
▁bununla	-11.1952
▁listelerinde	-11.1953
▁Jar	-11.1954
▁Harbi	-11.1955
▁hücrelerin	-11.1961
UN	-11.1961
bank	-11.1964
▁geçirmiş	-11.1965
я	-11.1966
▁Kırgız	-11.1969
▁kuzeydoğusunda	-11.1969
▁direnci	-11.197
lmesi	-11.1971
▁belirten	-11.1973
rs	-11.1977
▁tutul	-11.1977
▁Yalnız	-11.1979
▁Araştırmaları	-11.1981
ava	-11.1981
▁fotoğrafları	-11.1981
ese	-11.1982
▁belgeler	-11.1982
س	-11.1982
▁Nasreddin	-11.1983
▁söyleyen	-11.1984
▁imparatorluğun	-11.1986
▁astronom	-11.1986
▁mekanizması	-11.1989
▁İsyanı	-11.199
▁Valide	-11.199
▁Sh	-11.1992
▁Parça	-11.1993
kt	-11.1995
▁Hisar	-11.1997
▁desteğiyle	-11.1999
▁Kaz	-11.1999
▁Mol	-11.2001
▁Cenevre	-11.2002
kre	-11.2002
▁Tarsus	-11.2002
phy	-11.2005
DS	-11.2005
▁HMS	-11.2005
▁evde	-11.2005
▁şeklini	-11.2006
▁bireylerin	-11.2007
kem	-11.2007
▁yönetimindeki	-11.2009
thi	-11.2012
▁nadiren	-11.2013
▁kademe	-11.2013
▁toplulukları	-11.2014
▁durumlar	-11.2014
▁kilisesi	-11.2015
▁Sahne	-11.2018
▁ülkelere	-11.2022
▁bayram	-11.2024
lop	-11.2027
▁eyaletinin	-11.2027
▁yaşı	-11.2028
int	-11.2028
▁Center	-11.2029
tit	-11.2035
▁tarihçisi	-11.2035
▁epi	-11.2035
giz	-11.2036
▁Sina	-11.2036
▁imam	-11.2036
▁kaplıdır	-11.2037
▁çağı	-11.2037
▁ömrü	-11.2039
▁Abdülaziz	-11.204
▁Irmağı	-11.204
▁Haldun	-11.204
▁Marksizm	-11.204
▁yeme	-11.2041
Mü	-11.2042
▁ışınları	-11.2045
lamaya	-11.2046
▁düştüğü	-11.2046
▁köylü	-11.2051
▁durumunu	-11.2051
▁tutuklu	-11.2051
▁mit	-11.2052
▁kompleks	-11.2052
▁haz	-11.2052
▁tat	-11.2052
▁yaban	-11.2056
▁organizma	-11.2058
ianus	-11.2059
▁istisna	-11.206
▁soğutma	-11.206
▁dağları	-11.2062
Ki	-11.2067
▁gerektir	-11.2069
PA	-11.2069
▁bitti	-11.207
▁ip	-11.207
▁sınırlarını	-11.2074
▁Erol	-11.2077
▁etkinlikleri	-11.2078
▁katılmak	-11.2078
▁yapısına	-11.2079
▁Belarus	-11.2079
▁Ümit	-11.208
▁Vilayeti	-11.208
▁hitap	-11.208
▁sandalye	-11.2082
▁Vas	-11.2082
▁Sy	-11.2084
▁sıralama	-11.2084
▁turnesi	-11.2084
▁Titan	-11.2084
▁Derin	-11.2086
less	-11.2087
▁kıtası	-11.2091
▁anlaştı	-11.2095
mî	-11.2096
▁Alay	-11.2096
şek	-11.2097
#	-11.2097
▁Müttefik	-11.2099
▁entelektüel	-11.2099
▁toprağa	-11.2099
▁Goethe	-11.2099
▁statü	-11.2103
▁katılımcı	-11.2103
posta	-11.2104
▁Bart	-11.2104
lé	-11.2105
▁yayınladığı	-11.2106
▁keşfetti	-11.2106
▁Kanuni	-11.2106
önü	-11.2107
▁yem	-11.2108
▁Tren	-11.2108
riye	-11.2108
▁Yarışma	-11.2108
▁Victor	-11.2109
▁atık	-11.211
TE	-11.211
▁Fethi	-11.211
yacağını	-11.2113
▁Ödüller	-11.2117
▁yoksul	-11.2118
▁sodyum	-11.2118
▁komplo	-11.2118
▁muhafazakâr	-11.2118
▁Fire	-11.2118
▁gerçekleşmiştir	-11.212
▁ormanlar	-11.2121
▁North	-11.2123
▁okuyucu	-11.2123
▁ziyaretçi	-11.2124
▁sıraya	-11.2126
▁prens	-11.2127
râ	-11.2129
▁profili	-11.213
▁kentte	-11.2131
its	-11.2133
▁Lan	-11.2135
▁savaşlar	-11.2136
▁ter	-11.2137
▁ağabeyi	-11.2138
▁Ludwig	-11.2138
▁lehçesi	-11.2138
▁Şarkışla	-11.2138
fak	-11.2139
▁uyarınca	-11.2139
▁Kun	-11.214
▁Gro	-11.2142
▁yalan	-11.2144
▁bağlamda	-11.2148
pir	-11.2149
yani	-11.2151
▁kalıntılar	-11.2152
▁dram	-11.2153
gro	-11.2154
▁Selahaddin	-11.2157
liğinden	-11.2158
▁Kültürel	-11.2158
▁ال	-11.2159
▁edebiyatında	-11.2159
▁hücresi	-11.2159
▁rekoru	-11.216
▁Hot	-11.2161
▁yaşarlar	-11.2161
▁İli	-11.2161
▁Mısırlı	-11.2162
GS	-11.2163
▁harfleri	-11.2164
▁Körfez	-11.2164
▁köye	-11.2164
▁tanrılar	-11.2165
put	-11.2167
▁yönet	-11.2169
▁bilgisayarlar	-11.2171
▁karakterini	-11.2173
▁çıkarmıştır	-11.2174
demir	-11.2179
▁Kanalı	-11.2179
▁Ronaldo	-11.2181
▁ürettiği	-11.2183
▁etmez	-11.2183
▁yönetmenleri	-11.2186
▁belirlemek	-11.2186
▁HD	-11.2186
▁Bilgiler	-11.2186
▁gözle	-11.2186
▁şarkının	-11.2187
kro	-11.2188
vre	-11.219
▁akraba	-11.2192
▁mekanizma	-11.2195
çilik	-11.2196
ა	-11.2196
▁çıplak	-11.2196
▁garanti	-11.2196
bî	-11.2197
▁yıkım	-11.2197
▁Maxwell	-11.2197
▁County	-11.2199
▁turist	-11.22
▁geçirilmesi	-11.22
vâ	-11.2201
▁antlaşması	-11.2202
▁Norman	-11.2202
▁Einstein	-11.2205
▁beğeni	-11.2209
▁Blue	-11.2209
▁türünün	-11.2212
▁sayısal	-11.2212
Macaristan	-11.2214
▁Af	-11.2217
şik	-11.2218
▁kaz	-11.2219
▁Fabrikası	-11.2219
▁kralları	-11.2221
▁geliş	-11.2221
▁çalışmalarının	-11.2225
▁metni	-11.2225
▁sav	-11.2225
▁Turnuva	-11.2228
▁salon	-11.2229
▁ölmesi	-11.223
▁taraftarları	-11.223
▁bilginin	-11.2231
tron	-11.2231
çar	-11.2231
▁Üretim	-11.2231
his	-11.2232
▁mili	-11.2233
▁Hart	-11.2234
▁Çubuk	-11.2236
▁sır	-11.2237
▁Online	-11.2238
str	-11.224
▁Ocağı	-11.2241
▁Old	-11.2242
▁beklen	-11.2243
▁Prensi	-11.2243
▁kubbe	-11.2247
▁Brian	-11.2248
oyun	-11.2249
▁yayımladığı	-11.2249
▁duygu	-11.225
miyor	-11.2251
▁ameliyat	-11.2251
▁uzan	-11.2254
▁doğmuş	-11.2254
▁büyüğü	-11.2255
▁Hüsrev	-11.2256
▁belirtilmiştir	-11.2256
▁büyümesi	-11.2257
▁Ahit	-11.2258
▁zamanki	-11.226
▁vilayet	-11.226
▁kaçın	-11.226
▁psikoloji	-11.2262
▁Hugo	-11.2262
▁eğilim	-11.2263
▁duyulan	-11.2268
eiro	-11.227
▁ivme	-11.2271
▁sürme	-11.2272
illi	-11.2273
▁çoklu	-11.2273
▁Bayrak	-11.2277
▁IBM	-11.2278
stik	-11.2279
St	-11.2281
</	-11.2283
klarında	-11.2283
▁bulut	-11.2283
▁faz	-11.2286
fâ	-11.2286
▁böl	-11.229
▁sitesinde	-11.2291
▁oğludur	-11.2293
▁sürülmüştür	-11.2296
▁Nizam	-11.2297
▁Çekoslovakya	-11.2299
▁ödüller	-11.2299
▁Band	-11.2302
▁içer	-11.2302
ér	-11.2303
▁Theodor	-11.2305
▁Salonu	-11.2305
▁Müdürü	-11.2305
▁kil	-11.2306
▁Tepesi	-11.2307
ert	-11.2309
▁İleri	-11.231
RI	-11.2311
▁çalışmalarında	-11.2312
▁System	-11.2315
▁mutfak	-11.2315
▁İzzet	-11.2316
▁Türkistan	-11.2316
▁belirlenen	-11.2316
yecek	-11.2319
▁ürünlerin	-11.2319
▁aziz	-11.232
▁sigorta	-11.2321
▁Nev	-11.2322
▁Rob	-11.2322
▁Yerli	-11.2322
fre	-11.2323
▁Kil	-11.2325
▁tarihinden	-11.2326
▁Win	-11.2327
▁birinde	-11.2329
▁bağımsızlığı	-11.2329
▁Orijinal	-11.233
▁sisteme	-11.2331
▁Tat	-11.2331
▁zehir	-11.2332
▁dinamik	-11.2335
▁takiben	-11.2335
▁Türkmenistan	-11.2336
▁tamamlayan	-11.2336
▁çoğal	-11.2337
▁telgraf	-11.2337
▁gündüz	-11.2338
ürü	-11.2344
▁listesine	-11.2346
laz	-11.2348
▁şok	-11.2351
laştırılması	-11.2351
Go	-11.2352
▁Kab	-11.2354
▁istatistik	-11.2355
▁Çoğunlukla	-11.2355
▁Tedavi	-11.2355
▁uçuşu	-11.2355
▁belirsiz	-11.2359
▁Um	-11.236
layabilir	-11.2361
dio	-11.2365
▁sek	-11.2365
▁Fotoğraf	-11.2367
▁geçirmesi	-11.2368
▁müsabakaları	-11.237
▁Cin	-11.2371
▁Nick	-11.2373
▁derinliği	-11.2374
ûr	-11.2374
▁bağlıyken	-11.2374
▁Philip	-11.2375
▁eren	-11.2375
▁potansiyeli	-11.2376
▁Öyle	-11.2376
▁grubunu	-11.2377
▁Gru	-11.238
▁söylem	-11.2381
▁formül	-11.2382
▁zorundadır	-11.2382
insan	-11.2383
▁tüketimi	-11.2384
▁Apollo	-11.2386
TS	-11.2387
ayır	-11.2388
▁acil	-11.2389
▁kaplama	-11.2391
▁Berk	-11.2395
▁Nietzsche	-11.2395
▁Köpek	-11.2395
▁şube	-11.2397
Sen	-11.2398
▁Gör	-11.2399
▁kurucuları	-11.24
▁Destanı	-11.2403
▁Filmografi	-11.2404
▁maliyeti	-11.2404
▁kazası	-11.2404
▁yaşandı	-11.2405
▁bulduğu	-11.2407
▁dayanıklı	-11.2409
Der	-11.2412
silin	-11.2413
onik	-11.2414
▁kurallar	-11.2414
▁Maliye	-11.2414
▁Massachusetts	-11.2415
▁tahıl	-11.2415
▁Chan	-11.2416
κ	-11.2417
▁kalitesi	-11.2418
▁saptan	-11.2418
▁Heykel	-11.2419
▁oynamış	-11.2419
▁pencere	-11.242
kapı	-11.2421
▁alıyordu	-11.2422
▁oluşturulması	-11.2425
▁olasılığı	-11.2426
▁varsayım	-11.2426
▁şarkısını	-11.2426
▁askerlerin	-11.2426
gov	-11.2426
▁Muh	-11.2427
▁ailesine	-11.2428
fon	-11.2429
OR	-11.243
▁olgu	-11.2431
mesiyle	-11.2431
▁inşası	-11.2432
▁Bit	-11.2435
▁Venezuela	-11.2435
▁Filipinler	-11.2435
NA	-11.2436
▁coğrafyası	-11.2441
▁galaksi	-11.2442
chan	-11.2444
▁gitmesi	-11.2444
▁Cra	-11.2445
▁tarafına	-11.2445
baz	-11.2446
▁yönünden	-11.2447
▁Miller	-11.2448
▁Sık	-11.2449
▁Edi	-11.245
▁bulunuyor	-11.2451
▁Erkekler	-11.2451
uca	-11.2451
uğu	-11.2451
▁görüşlerini	-11.2451
▁Hamdi	-11.2452
ılmaktadır	-11.2453
▁yüzeyi	-11.2455
▁Tayvan	-11.2456
▁başarısını	-11.2458
GM	-11.246
ë	-11.246
▁Kurucu	-11.246
▁Mira	-11.2461
▁serisinin	-11.2462
bah	-11.2463
▁olaydan	-11.2465
▁kadrosunda	-11.2465
▁biyoloji	-11.2469
▁indi	-11.2469
▁Bö	-11.2471
cle	-11.2474
tica	-11.2474
▁Med	-11.2475
zir	-11.2475
▁Anlaşması	-11.2479
▁konumunda	-11.248
▁Galerisi	-11.2481
▁Sea	-11.2481
▁olunca	-11.2481
▁US	-11.2482
▁Yardımcısı	-11.2483
▁emriyle	-11.2484
emeyen	-11.2485
▁Sıra	-11.2485
▁Devrek	-11.2486
▁Petrol	-11.2486
▁ülkeden	-11.2487
▁makineleri	-11.2488
mey	-11.2488
elim	-11.2489
▁rakam	-11.2491
▁Mai	-11.2491
vert	-11.2493
▁şiddeti	-11.2494
▁ocak	-11.2494
tul	-11.2496
▁projeleri	-11.2496
▁Tiflis	-11.2496
▁Florida	-11.2496
▁Ovacık	-11.2496
▁eşliğinde	-11.2497
▁koymuştur	-11.2497
sper	-11.2497
▁devletinin	-11.2498
TC	-11.2498
▁faktör	-11.2498
iyat	-11.2499
lap	-11.2499
▁çıkarılmıştır	-11.2499
boy	-11.2505
▁Dave	-11.2505
▁yöneldi	-11.2507
▁Kızı	-11.2509
▁Etiyopya	-11.251
▁Ale	-11.2513
▁kullanması	-11.2513
med	-11.2513
▁arter	-11.2513
▁okulda	-11.2514
▁ılıman	-11.2516
doğu	-11.2516
▁başvur	-11.2516
▁mucit	-11.2516
▁Kırşehir	-11.2516
▁gözlemci	-11.2519
п	-11.2519
▁Rodos	-11.2519
ilmiştir	-11.252
html	-11.252
▁uydusu	-11.2521
▁ayıran	-11.2522
▁İstatistik	-11.2522
▁tehlikesi	-11.2525
▁momentum	-11.2526
▁klavye	-11.2528
▁derleme	-11.2531
▁ruhu	-11.2532
▁fikirleri	-11.2533
▁etmedi	-11.2535
▁Alice	-11.2536
▁Bodrum	-11.2536
▁Giovanni	-11.2536
▁İtilaf	-11.2536
▁pamuk	-11.2537
▁edilmesine	-11.2539
kadın	-11.2539
▁yayıncı	-11.2542
▁Serdar	-11.2543
▁kavuştu	-11.2545
▁Tanım	-11.2545
▁kitabını	-11.2548
gam	-11.2548
▁Onlar	-11.2549
▁Len	-11.255
▁hayatında	-11.255
▁kariyerinde	-11.2552
▁farkında	-11.2555
▁virüsü	-11.2556
▁getirilmiş	-11.2556
▁telaffuz	-11.2557
▁seçkin	-11.2558
İng	-11.2558
▁Sungurlu	-11.2558
▁dillerinde	-11.2558
▁tıpkı	-11.2559
▁köken	-11.2559
▁Milas	-11.2562
▁Mani	-11.2564
Ja	-11.2568
çağ	-11.2571
▁Bakanlar	-11.2572
▁kes	-11.2576
▁kaynaklara	-11.2577
▁vahşi	-11.2577
▁Fazıl	-11.2577
▁taht	-11.2578
▁manken	-11.2581
Hu	-11.2581
▁şekillerde	-11.2582
▁sıfat	-11.2584
▁görevinde	-11.2586
able	-11.2587
▁Tahir	-11.2587
▁gelişti	-11.2588
▁üretmek	-11.259
▁kala	-11.259
▁koro	-11.2591
▁krallığı	-11.2592
▁Yasa	-11.2596
lamaz	-11.2596
İl	-11.2596
▁Çocuklar	-11.2597
▁sigara	-11.2598
▁azalır	-11.2598
▁tünel	-11.2598
▁Karanlık	-11.2599
▁Kangal	-11.2601
▁taarruzu	-11.2604
ith	-11.2605
pos	-11.2605
▁kese	-11.2607
amin	-11.2608
alım	-11.261
▁filosu	-11.2611
▁Suç	-11.2612
lendirilmiştir	-11.2614
içi	-11.2615
mizi	-11.2615
üst	-11.2617
▁yat	-11.2618
▁Madonna	-11.2618
▁giyim	-11.2618
▁birleşik	-11.2618
▁şubesi	-11.2619
Pro	-11.262
acaktı	-11.2621
▁destekledi	-11.2624
lemek	-11.2626
▁Columbia	-11.2626
▁Sky	-11.2627
▁yağı	-11.2627
▁kuvvetlerin	-11.2627
▁sade	-11.2628
MC	-11.2629
▁tesisi	-11.263
▁eşittir	-11.2631
з	-11.2632
iter	-11.2633
Va	-11.2634
▁motorlar	-11.2634
▁Baha	-11.264
▁Haydar	-11.264
▁bölünmesi	-11.2642
▁rütbe	-11.2643
▁bölümden	-11.2644
▁sosyoloji	-11.2644
▁Kardeşler	-11.2645
▁Por	-11.2645
▁Are	-11.2647
▁denetimi	-11.2652
▁anime	-11.2652
efendi	-11.2653
▁kıyıları	-11.2657
▁etrafındaki	-11.2658
`	-11.2659
▁kamyon	-11.2659
▁grubunda	-11.2659
▁Down	-11.266
makla	-11.2661
▁belirlenmiştir	-11.2663
▁parçacıklar	-11.2663
▁sıkıntı	-11.2665
▁Fiziksel	-11.2666
▁Gur	-11.2667
ME	-11.2668
▁kapatıldı	-11.2669
▁hazırlanmış	-11.2669
▁altındadır	-11.267
▁istemci	-11.267
▁kampanyası	-11.2673
▁tarihini	-11.2674
▁üretimine	-11.2675
▁herkesin	-11.2675
▁Yaprak	-11.2676
▁Aşık	-11.2676
▁duran	-11.2679
▁şans	-11.268
▁merdiven	-11.268
▁günden	-11.268
▁Oktay	-11.268
▁Şükrü	-11.268
▁öldürür	-11.2681
▁volkanik	-11.2682
▁yetenekleri	-11.2683
▁namaz	-11.2685
▁çıkarır	-11.2685
▁düğün	-11.2685
▁kabuk	-11.2686
rey	-11.2687
▁lenf	-11.2687
Tr	-11.2687
▁bileşikler	-11.2689
▁mesafede	-11.2689
hib	-11.269
Gi	-11.269
▁Tatlı	-11.2692
▁mezhep	-11.2693
▁Blu	-11.2694
▁destan	-11.2696
dığında	-11.2698
▁balıklar	-11.2699
▁Philadelphia	-11.2701
▁istihdam	-11.2701
▁öteki	-11.2701
olo	-11.2701
▁gittikçe	-11.2702
▁zihinsel	-11.2703
▁hamile	-11.2704
▁koleksiyonu	-11.2706
âh	-11.2707
hri	-11.2708
▁ipek	-11.2708
▁aracın	-11.2709
▁söyle	-11.271
▁Radio	-11.2711
▁op	-11.2712
▁inşaatı	-11.2715
▁Demirci	-11.2715
▁hipo	-11.2715
▁çarpışma	-11.2717
▁kuzeye	-11.2718
hre	-11.2718
▁yayılma	-11.2718
▁Etki	-11.2719
Kah	-11.272
Amerikan	-11.2721
▁Meşrutiyet	-11.2721
▁Adıyaman	-11.2721
▁Akşam	-11.2721
▁Moğolistan	-11.2722
pl	-11.2722
▁belirleme	-11.2722
▁kalkınma	-11.2722
FS	-11.2722
▁FM	-11.2724
▁oluşum	-11.2726
▁liderliğindeki	-11.2726
back	-11.2727
▁mülk	-11.2727
gerçekleştirildi	-11.2729
▁zamandan	-11.2729
π	-11.273
▁çözümü	-11.2731
▁barındırır	-11.2731
▁tarihçileri	-11.2733
▁Konser	-11.2734
▁seviyesinden	-11.2735
AA	-11.2736
uzu	-11.2736
▁Ir	-11.2738
▁düzeltme	-11.2739
▁Rod	-11.2739
ettin	-11.274
▁seviyeleri	-11.2748
▁Sara	-11.2749
▁çapı	-11.2749
▁filo	-11.2751
▁dost	-11.2752
▁cep	-11.2752
▁değiştir	-11.2753
ulmuş	-11.2757
▁imalat	-11.276
▁Yücel	-11.2761
▁karşılamak	-11.2762
▁İktisat	-11.2763
▁dolaylı	-11.2763
▁gayet	-11.2763
▁göstererek	-11.2764
▁öncülük	-11.2765
lenip	-11.2765
▁bulunmadığı	-11.2767
▁standartları	-11.277
▁İb	-11.2771
▁kuyruklu	-11.2772
▁seçil	-11.2773
▁önerisi	-11.2774
▁German	-11.2774
▁tanık	-11.2777
AV	-11.2777
▁gelenekleri	-11.278
EP	-11.2781
tizm	-11.2782
tsu	-11.2783
▁Avrasya	-11.2784
▁lehine	-11.2784
▁cennet	-11.2784
▁nitelik	-11.2786
▁takıl	-11.2787
▁Sözlüğü	-11.279
US	-11.2791
▁Çerkesler	-11.2793
▁Bulut	-11.2796
▁sürücü	-11.2797
▁Ulus	-11.28
▁Ros	-11.28
▁his	-11.28
▁News	-11.2801
▁önerdi	-11.2801
▁Çan	-11.2801
oli	-11.2801
▁Polat	-11.2802
▁Milliye	-11.2804
▁Divriği	-11.2805
▁Kennedy	-11.2805
▁peynir	-11.2805
▁seramik	-11.2805
▁Death	-11.2806
TÜ	-11.2808
atik	-11.2813
tav	-11.2816
vah	-11.2817
▁seks	-11.2818
▁Marc	-11.2819
▁rütbesi	-11.282
▁elemanı	-11.2822
▁yatakları	-11.2824
hay	-11.2825
yıldız	-11.2825
ilk	-11.2825
▁tutulması	-11.2825
▁Cevdet	-11.2825
▁Jordan	-11.2826
RT	-11.2826
▁Hamburg	-11.2826
▁düzgün	-11.2827
▁Heart	-11.2828
▁itibar	-11.2828
▁amaçlayan	-11.283
▁yapısında	-11.2834
▁«	-11.2834
▁kapasiteli	-11.2835
▁ab	-11.2835
nel	-11.2836
▁canlandırdığı	-11.2836
▁etiket	-11.2837
toloji	-11.2837
▁ikiz	-11.2838
▁meşru	-11.2838
▁manga	-11.284
▁kentsel	-11.284
rac	-11.284
▁Dun	-11.2842
▁Hil	-11.2844
▁Melik	-11.2845
▁yayılmış	-11.2845
▁müddet	-11.2846
▁gösterilebilir	-11.2847
▁Güreş	-11.2847
div	-11.2847
enler	-11.2848
▁akan	-11.285
▁bilimleri	-11.2852
▁Light	-11.2852
▁eserini	-11.2853
▁sözleşmesi	-11.2853
atlı	-11.2854
lot	-11.2857
▁tarihlerde	-11.2858
▁sin	-11.2859
ML	-11.2863
▁Posta	-11.2864
▁iddiası	-11.2865
iko	-11.2866
▁Galileo	-11.2867
▁problemi	-11.2868
▁Abdül	-11.2868
▁namazı	-11.2869
▁yetkilileri	-11.287
▁Lozan	-11.287
kaş	-11.2874
yeni	-11.2875
▁Çince	-11.2878
yım	-11.2881
CM	-11.2882
▁aletleri	-11.2883
▁yetiştiril	-11.2883
▁alev	-11.2884
▁hektar	-11.2884
ydü	-11.2885
▁felaket	-11.2885
▁raporu	-11.2886
▁ap	-11.2887
▁kendileri	-11.2887
▁kâşif	-11.2888
▁Gustav	-11.2889
▁tekstil	-11.2889
▁yeğeni	-11.2889
▁Yağmur	-11.2889
▁oynamaktadır	-11.2889
▁konuşur	-11.289
▁Baltık	-11.289
ffe	-11.2892
▁bağlama	-11.2894
▁ölümünün	-11.2895
ecekti	-11.2895
▁Makine	-11.2895
▁cihazlar	-11.2895
▁esnek	-11.2896
▁Mali	-11.2896
▁oyunda	-11.2899
▁amaçlar	-11.2899
▁aynıdır	-11.2902
skop	-11.2903
▁adaya	-11.2906
▁East	-11.2908
▁üretilmiş	-11.2909
bik	-11.2909
▁Varşova	-11.291
memiş	-11.291
▁istasyon	-11.291
▁canlandırıl	-11.2912
▁Tir	-11.2913
▁eserlerinde	-11.2913
▁tenis	-11.2914
▁Jen	-11.2914
▁yaptılar	-11.2914
▁daima	-11.2915
▁militan	-11.2916
çuk	-11.2918
▁kullanırlar	-11.2918
▁müziğin	-11.2918
fiz	-11.2919
▁yayıldı	-11.2919
▁MiG	-11.2919
▁günün	-11.2921
dre	-11.2925
▁açıklamada	-11.2928
çok	-11.2928
▁subayı	-11.2929
▁olgun	-11.2929
lemesi	-11.2931
δ	-11.2931
▁ob	-11.2931
▁galip	-11.2931
▁takdir	-11.2935
▁olacaktı	-11.2936
▁artmıştır	-11.2937
▁pir	-11.2938
leyecek	-11.294
▁çalgı	-11.2941
▁imkânsız	-11.2942
Por	-11.2945
▁bat	-11.2945
▁Şe	-11.2945
rev	-11.2946
▁evlenme	-11.2947
▁kaybetmiş	-11.2949
▁açılmış	-11.295
pat	-11.2951
hak	-11.2951
▁kayıtlı	-11.2952
▁karakteristik	-11.2953
▁geçirerek	-11.2954
▁edebiyatının	-11.2955
GP	-11.2955
▁PC	-11.296
▁karşısına	-11.296
▁dostu	-11.2961
▁Hen	-11.2962
gat	-11.2962
▁iri	-11.2962
▁İsim	-11.2965
▁ilanı	-11.2966
▁çalışmalarda	-11.2968
▁kayma	-11.2969
▁bize	-11.297
▁Putin	-11.2971
▁kariyer	-11.2972
▁mensupları	-11.2972
▁Sayfası	-11.2974
▁Freud	-11.2974
▁Wright	-11.2975
▁yarışması	-11.2975
▁Urfa	-11.2975
▁seçilmesi	-11.2979
▁süsleme	-11.2979
liz	-11.298
ée	-11.298
▁formülü	-11.2981
▁etmeleri	-11.2982
▁yürüttü	-11.2984
▁izni	-11.2985
▁Yahudileri	-11.2985
▁sporcu	-11.2985
▁haftada	-11.2987
▁oto	-11.2989
vra	-11.2989
▁anlattığı	-11.2989
▁yorumlar	-11.299
fel	-11.2992
ž	-11.2994
▁Satürn	-11.2994
SM	-11.2995
▁içeriyordu	-11.2998
▁üretilmiştir	-11.2999
  	-11.3
▁gerçekleştiği	-11.3002
zler	-11.3008
▁duyarlı	-11.3011
▁fu	-11.3011
▁zordur	-11.3013
lio	-11.3014
▁Nevşehir	-11.3016
▁Group	-11.3017
▁Keskin	-11.3017
▁Robin	-11.3018
▁Mezar	-11.3018
▁düet	-11.3019
▁Cri	-11.302
▁başarmıştır	-11.3021
dus	-11.3021
▁Merc	-11.3022
▁bizim	-11.3023
▁kapat	-11.3024
▁düşündü	-11.3025
▁yapıtı	-11.3025
▁hocası	-11.3026
▁Os	-11.3028
IR	-11.3028
▁levha	-11.303
ward	-11.303
yorlardı	-11.3031
▁Got	-11.3032
bia	-11.3032
▁düşünceleri	-11.3032
▁ayırma	-11.3034
▁çalma	-11.3034
▁personeli	-11.3035
▁Faik	-11.3036
▁Abdurrahman	-11.3037
▁tazminat	-11.3037
▁eşdeğer	-11.3037
▁söylenebilir	-11.3038
▁Ekrem	-11.3038
▁Gerek	-11.3038
▁denklemi	-11.304
ations	-11.3042
▁unsurları	-11.3043
yacak	-11.3045
▁Prag	-11.3049
sür	-11.305
▁Zamanla	-11.3052
▁koyduğu	-11.3057
▁kaplar	-11.3058
▁İktisadi	-11.3059
▁Trump	-11.3059
▁Galata	-11.306
Amerikalı	-11.306
▁Dio	-11.306
▁koruyan	-11.3061
▁Bush	-11.3061
▁yetişen	-11.3063
benz	-11.3065
▁tezi	-11.3067
▁üzerindedir	-11.3068
▁ikincil	-11.3069
▁üyeler	-11.3069
adlandırılmıştır	-11.3069
▁şehirdir	-11.3073
▁Hard	-11.3075
▁Dokuz	-11.3075
▁Evliya	-11.3077
▁istilası	-11.3079
▁kayıplar	-11.308
▁Yörük	-11.308
▁Sürgün	-11.308
▁konularında	-11.3082
▁taşları	-11.3083
▁kişilere	-11.3084
likte	-11.3084
▁İlişkiler	-11.3085
ates	-11.3086
▁Mahkeme	-11.3087
Batı	-11.3088
▁Master	-11.3089
vil	-11.3091
▁tema	-11.3093
▁Ph	-11.3093
▁noktasına	-11.3096
lev	-11.3096
leşti	-11.3096
▁kaynaklarında	-11.3099
▁ilişkilerini	-11.3099
х	-11.3101
▁ODTÜ	-11.3101
▁Çınar	-11.3102
enos	-11.3103
AK	-11.3103
▁basılan	-11.3103
Ser	-11.3103
▁kuralı	-11.3106
▁dönerek	-11.3106
▁tasarlanmıştır	-11.3107
▁sür	-11.311
▁Kabil	-11.3111
▁durdur	-11.3112
▁Wall	-11.3115
▁teorileri	-11.3115
büyük	-11.3115
▁almıştı	-11.3118
▁Sparta	-11.3118
ışını	-11.312
▁Bab	-11.3121
▁Özal	-11.3122
▁şah	-11.3122
▁senaryosunu	-11.3123
▁uzatma	-11.3123
▁Benjamin	-11.3123
▁Russell	-11.3123
▁Granada	-11.3123
mg	-11.3124
tto	-11.3128
▁Kazım	-11.3129
▁delik	-11.3129
▁Wood	-11.313
▁dokuma	-11.3131
▁ihtimali	-11.3131
▁Peygamber	-11.3133
imiz	-11.3133
▁etik	-11.3135
▁aşaması	-11.3137
▁şarkıların	-11.3137
▁almayı	-11.314
▁çabası	-11.3141
▁turu	-11.3142
malar	-11.3143
▁Journal	-11.3145
▁Nâzım	-11.3145
▁Kelime	-11.3145
▁ulaşması	-11.3145
▁Howard	-11.3146
cap	-11.3148
Bur	-11.315
▁Lang	-11.3151
▁berabere	-11.3151
Fe	-11.3153
▁iddiaları	-11.3154
▁geçmeden	-11.3155
▁sürgüne	-11.3156
▁deneyler	-11.3159
▁dilinin	-11.3159
▁kıs	-11.316
▁geliştirildi	-11.316
▁etkileme	-11.3162
▁uygulan	-11.3163
▁yaşan	-11.3163
▁sayısında	-11.3164
▁Ünye	-11.3164
▁alış	-11.3165
▁Gabriel	-11.3166
▁sakat	-11.3166
ough	-11.3167
▁kitabe	-11.3167
▁namlu	-11.3167
gno	-11.3168
ugh	-11.3169
▁yetiştir	-11.317
▁toplar	-11.3173
▁Eleştirmenleri	-11.3174
▁Proto	-11.3174
▁Liber	-11.3174
▁gerektiren	-11.3174
▁büyüdü	-11.3178
lebilir	-11.3182
▁ilim	-11.3183
taşı	-11.3187
▁Muş	-11.3187
▁eve	-11.3187
ά	-11.3188
▁tütün	-11.3188
▁Boyabat	-11.3188
▁konumuna	-11.3189
▁takımlarından	-11.3192
▁gelince	-11.3194
▁yy	-11.3195
▁hükümdarlığı	-11.3196
▁edilmişti	-11.3198
▁yönden	-11.3198
▁masal	-11.32
▁basamak	-11.3202
▁nedenlerle	-11.3204
▁Poe	-11.3204
▁Ayhan	-11.3205
ISBN	-11.3206
▁katmanı	-11.3207
▁programında	-11.3209
▁Mihail	-11.321
▁Vincent	-11.321
▁tavır	-11.321
▁kaybetmiştir	-11.3213
▁dolaşım	-11.3218
▁yönlendir	-11.3218
▁Politika	-11.3219
▁oylama	-11.322
▁dükkân	-11.3222
▁tarikat	-11.3223
sunun	-11.3224
▁bilinme	-11.3228
▁yaklaş	-11.3228
leştir	-11.3228
▁His	-11.3228
▁kuzeyindeki	-11.3229
▁Tebriz	-11.3232
▁kült	-11.3233
▁Mason	-11.3235
▁koku	-11.3236
▁Şimdi	-11.3236
▁sunduğu	-11.3237
▁görmesi	-11.3238
▁proton	-11.324
▁engellemek	-11.3242
oit	-11.3244
▁tahtı	-11.3245
▁Mekteb	-11.3245
BB	-11.3246
dok	-11.3247
▁Georg	-11.3248
▁soyadı	-11.325
▁hamle	-11.3251
İş	-11.3253
▁mutlu	-11.3253
Ju	-11.3254
▁Bitlis	-11.3254
▁Kerim	-11.3254
▁Gon	-11.3257
ebileceğini	-11.3258
▁Havacılık	-11.3258
▁iman	-11.3258
▁Kentin	-11.3259
▁Auto	-11.326
çam	-11.3261
▁Limanı	-11.3262
▁Yeniçeri	-11.3262
▁Kre	-11.3262
▁madeni	-11.3262
▁Mr	-11.3264
▁gerçekçi	-11.3267
▁taktik	-11.3268
▁Osmanlıların	-11.3271
▁sayım	-11.3273
icus	-11.3274
▁geometri	-11.3274
?)	-11.3275
▁Gizli	-11.3275
▁söyleyerek	-11.3275
▁anlatılır	-11.3276
▁özen	-11.3276
▁Lar	-11.3277
▁Vefa	-11.3278
▁Yıldızeli	-11.3278
▁eserlerin	-11.3279
▁haritası	-11.3279
▁yıkıldı	-11.3279
▁ayna	-11.328
▁denklem	-11.3281
▁sözcüğünden	-11.3282
▁futbolcusu	-11.3282
▁versiyon	-11.3283
yoruz	-11.3284
▁ustası	-11.3286
▁yapılanma	-11.3287
yeceği	-11.3287
▁Lau	-11.3289
▁denizci	-11.3289
▁civarı	-11.3289
DD	-11.329
kri	-11.329
OH	-11.3292
azi	-11.3293
▁kabuğu	-11.3294
▁bozuklukları	-11.3295
▁Oyuncusu	-11.3297
Cl	-11.3297
▁patlayıcı	-11.3298
▁kullanıma	-11.33
▁Volkan	-11.33
▁çalışmalara	-11.3302
▁öldürmek	-11.3302
▁üssü	-11.3302
▁adada	-11.3303
▁geçirmiştir	-11.3303
▁Mega	-11.3307
▁yıla	-11.3308
latma	-11.3308
▁füze	-11.3309
▁Ukraynalı	-11.3309
over	-11.3315
▁bana	-11.3316
iller	-11.3316
$	-11.3318
▁savunması	-11.3318
×	-11.3319
▁heavy	-11.3319
▁Taylor	-11.3319
▁Çukurova	-11.332
▁haklar	-11.332
▁tipleri	-11.3321
▁düzenlenmiştir	-11.3323
▁Umut	-11.3325
▁eti	-11.3327
▁eserlerinin	-11.3327
▁düşmanı	-11.3328
▁civarındadır	-11.3328
▁bozukluk	-11.3329
▁kâr	-11.3329
▁dalgaları	-11.333
▁özne	-11.333
lme	-11.3332
▁çocukluk	-11.3333
▁geliyordu	-11.3333
▁edilecek	-11.3334
gah	-11.3334
kıl	-11.3334
▁giril	-11.3334
▁Bet	-11.3337
zyon	-11.3337
▁denizden	-11.3338
▁Çoban	-11.3342
▁Pol	-11.3342
bun	-11.3343
▁Maz	-11.3344
ıyorlardı	-11.3346
▁oluşturulmuş	-11.3346
ath	-11.3347
▁asır	-11.3349
▁AS	-11.3351
▁satır	-11.3351
▁Festival	-11.3352
▁Game	-11.3352
▁taşlar	-11.3352
▁gelecekte	-11.3353
ister	-11.3354
▁Kaplan	-11.3355
▁nedenleri	-11.3357
▁Ortaköy	-11.3361
▁BAFTA	-11.3363
▁Kuveyt	-11.3363
▁Santiago	-11.3363
▁André	-11.3364
▁Sirius	-11.3365
▁istasyonları	-11.3365
▁oluştu	-11.3365
▁Kin	-11.3367
▁bakanları	-11.3368
hab	-11.3369
▁görüşe	-11.3371
▁sözlük	-11.3373
yeceğini	-11.3375
▁Acı	-11.3377
▁eleştirmen	-11.3377
▁bulunul	-11.3378
▁padişahı	-11.3379
▁ermesi	-11.3381
imli	-11.3382
▁halkları	-11.3382
▁yollarını	-11.3383
▁yerlere	-11.3384
cumhurbaşkanlığı	-11.3385
▁Halkın	-11.3385
▁belirleyen	-11.3386
▁Science	-11.3387
▁kurucularından	-11.3388
▁arkeolog	-11.3388
▁iyileştirme	-11.3389
▁olanağı	-11.3391
▁öldür	-11.3391
▁tele	-11.3393
▁hakimiyetine	-11.3394
▁cesaret	-11.3395
▁görevlendirildi	-11.3396
▁alındığı	-11.3396
▁Kıs	-11.3396
▁beyan	-11.3399
▁É	-11.3399
▁Rusların	-11.3401
▁müzisyenleri	-11.3404
▁gözleri	-11.3406
▁canlandırdı	-11.3406
▁huzur	-11.3406
▁Suikast	-11.3408
▁alüminyum	-11.3408
▁istenen	-11.3408
▁ayrılıp	-11.3408
▁patlak	-11.3408
▁Köprülü	-11.341
▁önemlisi	-11.3412
▁Hei	-11.3412
nur	-11.3413
▁Zü	-11.3413
▁baştan	-11.3413
▁dizisinin	-11.3413
▁Kemer	-11.3414
▁çağın	-11.3415
TO	-11.3415
▁Adams	-11.3416
▁Gun	-11.3418
▁Mala	-11.3419
▁hidro	-11.342
Doğu	-11.3421
cat	-11.3421
▁Dişi	-11.3422
▁genişlemesi	-11.3424
▁bacak	-11.3424
▁belirtmek	-11.3424
kka	-11.3425
▁dünyasının	-11.3425
Almanya	-11.3426
▁bağları	-11.3428
▁suya	-11.3429
ت	-11.343
▁Armstrong	-11.343
▁elbise	-11.343
▁Şeref	-11.3431
▁aşamada	-11.3431
▁oluşturuldu	-11.3432
▁sunulan	-11.3432
yüz	-11.3433
▁Safevi	-11.3433
▁zira	-11.3435
▁anket	-11.3436
▁teşkilat	-11.3436
▁ISO	-11.3436
▁başlanan	-11.3437
▁ekseni	-11.3438
▁eylemleri	-11.344
▁niteliğinde	-11.3441
▁karışım	-11.3444
tım	-11.3444
îyye	-11.3444
▁hikâyeleri	-11.3445
▁ilkel	-11.3446
kim	-11.3447
lanacak	-11.3447
▁Stan	-11.345
▁gitaristi	-11.345
▁Tai	-11.345
▁Senato	-11.345
▁uğrat	-11.3452
▁Undertaker	-11.3452
▁ölümcül	-11.3452
▁kolej	-11.3453
inae	-11.3453
▁Pedro	-11.3453
▁Gümüşhane	-11.3453
▁devlete	-11.3454
▁lazer	-11.3454
▁ömür	-11.3456
▁Petro	-11.3458
cağı	-11.3458
▁kültüründe	-11.3459
▁Good	-11.3459
▁etkisiz	-11.3462
▁SA	-11.3463
▁mesajı	-11.3465
▁başlarına	-11.3467
tropik	-11.347
▁şairi	-11.3473
▁teknolojik	-11.3475
▁Tevrat	-11.3475
enburg	-11.3475
bkz	-11.3475
lüğünü	-11.3476
▁Amazon	-11.3476
town	-11.3477
▁bağlanma	-11.3477
▁çekirdeğin	-11.3479
▁Burak	-11.3479
Can	-11.3481
▁gerçekleşme	-11.3485
grafi	-11.3489
▁CO	-11.349
▁dağıldı	-11.3491
▁Alanı	-11.3492
▁yolunun	-11.3492
▁Esen	-11.3494
▁görevlileri	-11.3494
▁ribaund	-11.3497
▁döviz	-11.3498
▁noktaya	-11.35
▁jet	-11.35
▁Medici	-11.3502
▁kadardır	-11.3502
SC	-11.3503
▁ırkı	-11.3503
▁dinlenme	-11.3507
▁yazıt	-11.3507
▁oynamaya	-11.3512
ust	-11.3513
Du	-11.3518
▁ortamında	-11.3518
▁Football	-11.3519
▁Profesyonel	-11.3519
▁misafir	-11.3519
▁İstiklal	-11.3519
▁Yurdu	-11.3519
▁kesimlerinde	-11.3519
culuk	-11.352
▁çevrilmiştir	-11.3522
▁bulunmaz	-11.3523
▁alındığında	-11.3525
▁öğretmenlik	-11.3526
▁başkanlığına	-11.3526
▁yapılarak	-11.3527
pot	-11.3527
mizin	-11.3527
▁görevde	-11.3527
▁Beh	-11.3529
uyla	-11.353
▁ölçekli	-11.3531
▁kökleri	-11.3531
▁hizmetler	-11.3532
Almanca	-11.3532
Kur	-11.3532
▁giderken	-11.3532
▁söylenen	-11.3533
▁Kri	-11.3533
▁aletler	-11.3533
▁Ef	-11.3535
▁öncesine	-11.354
eva	-11.354
▁Aba	-11.3541
rup	-11.3541
▁Kelt	-11.3541
▁Malezya	-11.3542
▁Ceyhan	-11.3542
rea	-11.3542
▁ödülleri	-11.3542
▁Böylelikle	-11.3542
▁efsanevi	-11.3544
cek	-11.3545
▁Şampiyonluk	-11.3546
▁değerler	-11.3547
▁Kürtçe	-11.3547
grad	-11.3547
▁misyoner	-11.3548
▁onur	-11.3548
▁doğuya	-11.3548
abilirler	-11.355
çısı	-11.355
▁köyler	-11.3552
▁birbirini	-11.3553
▁yerleşmiştir	-11.3553
▁kurumların	-11.3554
▁güvence	-11.3554
▁Binası	-11.3555
▁alıyor	-11.3555
ladıkları	-11.3555
▁English	-11.3558
laştır	-11.3559
▁kabiliyeti	-11.3561
▁gücün	-11.3561
▁Babasının	-11.3563
▁Güncel	-11.3563
▁Mut	-11.3563
▁seslendirdi	-11.3564
▁Drama	-11.3564
▁kronik	-11.3564
▁alaşım	-11.3565
▁Uluslar	-11.3567
gul	-11.3569
▁belirlenmiş	-11.3569
cisi	-11.3569
▁radar	-11.357
polis	-11.3572
▁işleyen	-11.3573
▁beraberinde	-11.3573
ique	-11.3574
▁yükseklik	-11.3576
▁çıkmak	-11.3579
▁gününde	-11.3579
dık	-11.358
▁noktalar	-11.358
▁sarmal	-11.358
oluk	-11.3581
▁Elektro	-11.3581
▁sanatsal	-11.3581
▁yaptığını	-11.3583
Jo	-11.3584
ûl	-11.3584
▁maçını	-11.3585
▁geçmek	-11.3586
haf	-11.3587
▁körfez	-11.3587
▁idrar	-11.3587
▁ihanet	-11.3587
▁Gordon	-11.3588
▁Faruk	-11.3589
▁Giray	-11.359
▁göçü	-11.359
▁Island	-11.359
▁Kimyasal	-11.3591
▁çalışmasını	-11.3592
▁Üstün	-11.3594
▁taşıdı	-11.3595
▁planda	-11.3598
▁koordinat	-11.3598
▁Akademik	-11.3601
▁doları	-11.3604
▁yönetiminin	-11.3606
abad	-11.3607
LE	-11.3607
▁kutlama	-11.3607
▁destekleme	-11.361
▁kurar	-11.361
▁dünyası	-11.3613
▁direktörlük	-11.3614
▁uğramış	-11.3614
▁itibarı	-11.3616
ado	-11.3616
▁yayına	-11.3616
▁koşul	-11.3622
▁Sahil	-11.3624
▁kızları	-11.3625
▁bileşik	-11.3625
▁başlat	-11.3625
yy	-11.3626
▁hızlandır	-11.3627
▁kalkan	-11.3627
▁öğrenir	-11.3628
▁Lüksemburg	-11.3632
▁İşbirliği	-11.3632
▁çubuk	-11.3632
▁tahsil	-11.3632
▁anlamları	-11.3632
▁yükselmiştir	-11.3634
▁epitel	-11.3634
▁Rad	-11.3636
▁Kapısı	-11.3637
ebilme	-11.3638
▁Bursaspor	-11.3638
▁Adi	-11.3638
▁malzemesi	-11.3638
▁amaçları	-11.3639
▁azalması	-11.3642
▁America	-11.3643
▁usulü	-11.3644
▁kurtarmak	-11.3646
▁yemeği	-11.3649
▁Profesör	-11.3652
▁Medine	-11.3653
▁Yenice	-11.3653
▁Association	-11.3655
▁kalsiyum	-11.3655
ülü	-11.3655
▁olmaksızın	-11.3655
▁tanrıçası	-11.3658
▁şehrine	-11.3659
▁çadır	-11.3659
▁Hey	-11.366
▁yetenekli	-11.3663
▁kazanma	-11.3664
▁hükümet	-11.3666
▁asal	-11.367
▁türlerin	-11.367
▁Ball	-11.367
▁yükselmesi	-11.3671
vid	-11.3671
▁kullanımına	-11.3671
▁gizlice	-11.3672
▁yolda	-11.3673
▁çevirdi	-11.3673
mid	-11.3674
▁gerekçe	-11.3675
TH	-11.3676
▁kanunu	-11.3676
▁çözelti	-11.3677
▁emniyet	-11.3678
▁Kıta	-11.3678
▁Evrim	-11.3679
▁dönüşmüştür	-11.3679
▁Şehirde	-11.3681
▁kullanılmak	-11.3681
▁Ted	-11.3681
▁Pay	-11.3682
▁tutulur	-11.3682
▁Mutlu	-11.3683
▁Damat	-11.3686
▁Uruguay	-11.3688
▁sürükle	-11.3688
▁öğret	-11.3688
▁ısınma	-11.3688
şır	-11.3689
▁dizide	-11.369
▁planlı	-11.369
▁Taner	-11.3691
▁kaçan	-11.3691
py	-11.3693
▁Bes	-11.3696
▁takımını	-11.3698
rov	-11.3699
▁argüman	-11.37
▁müziğe	-11.37
▁tecavüz	-11.37
▁düzenlenmiş	-11.3703
▁Yüce	-11.3703
kendi	-11.3703
▁gram	-11.3705
aire	-11.3714
layacak	-11.3715
gio	-11.3716
yaklaşık	-11.3717
▁aksiyon	-11.3717
▁Selçuklular	-11.3718
▁tepkiler	-11.372
ings	-11.3721
▁yorumu	-11.3721
▁bıçak	-11.3723
▁Sokak	-11.3723
▁partilerin	-11.3724
▁Kontrol	-11.3724
▁dönmüştür	-11.3724
▁yasalar	-11.3724
▁kaydedilmiştir	-11.3725
▁Filistinli	-11.3726
uka	-11.3726
pati	-11.3726
▁çıkmasına	-11.3728
▁Queen	-11.3729
▁sikke	-11.3729
▁sektöründe	-11.373
▁sözcüğünün	-11.373
▁ağrısı	-11.3733
▁silahı	-11.3733
▁tenisçi	-11.3735
▁demo	-11.3735
▁kullandıkları	-11.3738
Ankara	-11.3742
▁azaltmak	-11.3742
▁hastalıkların	-11.3744
▁Havza	-11.3745
UR	-11.3746
▁Jedi	-11.3748
▁kesit	-11.3748
ffer	-11.3751
▁tutuk	-11.3751
inter	-11.3751
▁kartı	-11.3751
▁Eren	-11.3751
spi	-11.3752
▁direktörü	-11.3753
▁Şar	-11.3754
belirtilmektedir	-11.3755
▁valileri	-11.3755
ois	-11.3758
▁yazıldığı	-11.3758
▁Lisa	-11.3758
▁Mario	-11.3759
▁Pho	-11.3761
▁kullanılabil	-11.3763
▁sesini	-11.3764
▁tartışmalı	-11.3767
▁Kötü	-11.3767
▁Single	-11.3769
▁Bilecik	-11.3769
▁Ticari	-11.3769
▁İlyas	-11.377
▁açılışı	-11.3771
▁kaybettiği	-11.3772
▁Hemen	-11.3773
▁sağlamış	-11.3774
▁zarı	-11.3774
▁fer	-11.3774
▁basıldı	-11.3775
▁metro	-11.3778
▁eleman	-11.3779
ς	-11.3779
▁çekmek	-11.3779
▁güneydoğusunda	-11.378
▁Br	-11.3782
▁İçinde	-11.3782
▁Sabri	-11.3785
▁filmlerinde	-11.3786
zor	-11.3787
▁yapabilir	-11.3787
▁Tarihçi	-11.3789
▁Ven	-11.3789
New	-11.379
kot	-11.3791
▁Douglas	-11.3792
▁mesleği	-11.3792
▁İshak	-11.3793
▁Persler	-11.3793
▁Dans	-11.3793
▁somut	-11.3793
▁konsol	-11.3794
▁zıt	-11.3794
▁Dini	-11.3795
▁aşan	-11.3795
 (	-11.3796
stor	-11.3796
▁Palm	-11.3797
hap	-11.3798
ball	-11.3799
▁tekli	-11.3803
may	-11.3803
▁çaldı	-11.3804
▁Kulüpler	-11.3805
▁eşitlik	-11.3806
irken	-11.3809
▁yönetil	-11.381
▁anlaşılması	-11.3811
▁uyandır	-11.3814
iyorum	-11.3814
▁bez	-11.3816
▁sunuldu	-11.3816
▁kırk	-11.3816
▁uyarlanan	-11.3818
▁Fall	-11.3818
▁Toplumsal	-11.3819
▁gelmişti	-11.3819
rdı	-11.382
▁Uç	-11.382
▁sesleri	-11.382
▁dikey	-11.382
▁mat	-11.3821
▁satışı	-11.3822
▁Bazıları	-11.3823
EK	-11.3824
▁sure	-11.3825
▁Gönül	-11.3826
▁mimarlık	-11.3827
▁vatan	-11.3827
San	-11.3829
▁Elçi	-11.3829
▁elemelerinde	-11.383
larken	-11.3831
▁Ozan	-11.3831
▁yazmış	-11.3831
▁Albümde	-11.3833
▁girmek	-11.3834
▁karma	-11.3836
▁gölün	-11.3836
▁British	-11.3837
şarkı	-11.3838
öğretim	-11.3838
▁kılın	-11.3838
▁Jacob	-11.3839
▁ibaret	-11.384
amayacak	-11.3841
▁domuz	-11.3842
▁meşe	-11.3842
aud	-11.3844
▁özelliklere	-11.3844
TR	-11.3845
▁Neu	-11.3845
▁topraklarda	-11.3845
▁Key	-11.3847
▁oturum	-11.3847
liğinde	-11.3851
▁Tru	-11.3853
▁ilişkilerin	-11.3854
▁Muha	-11.3855
▁tarzda	-11.3856
ters	-11.3856
▁fen	-11.3856
▁bilinmeyenler	-11.3857
▁boyunda	-11.3858
▁Vir	-11.3858
▁Kuşatması	-11.3858
▁yönetimini	-11.3859
▁atası	-11.386
▁Bolivya	-11.3862
DR	-11.3862
▁aygıt	-11.3863
▁Internet	-11.3863
▁eğ	-11.3864
▁ünite	-11.3864
▁çekmiştir	-11.3866
▁görüşünü	-11.3866
▁sindirim	-11.3867
▁ahlaki	-11.3867
▁Tayland	-11.3868
▁websitesi	-11.387
▁gazetecileri	-11.3871
amaması	-11.3871
▁Halit	-11.3871
▁beraberlik	-11.3872
▁Marcel	-11.3872
öv	-11.3872
▁nesli	-11.3872
▁Parlamento	-11.3872
▁konumundadır	-11.3874
▁bitkilerin	-11.3875
drom	-11.3876
ović	-11.3876
▁ölçüm	-11.3878
ûs	-11.3878
▁planları	-11.388
▁puanla	-11.3881
▁çizer	-11.3882
ob	-11.3883
▁Demiryolu	-11.3886
▁kutu	-11.3888
▁eğilimi	-11.3888
▁Erdal	-11.3889
▁İdaresi	-11.3891
oh	-11.3893
▁tarafta	-11.3895
▁unsurlar	-11.3895
▁aksa	-11.3895
▁skor	-11.3895
▁Kont	-11.3896
▁Ova	-11.3896
▁açıklar	-11.3897
▁çalgılar	-11.3897
▁aralığı	-11.3899
▁yemin	-11.3899
▁toplumda	-11.39
▁teker	-11.39
▁tamamını	-11.3901
▁Dünyada	-11.3901
use	-11.3902
▁kararıyla	-11.3903
▁Hukuku	-11.3904
semi	-11.3904
ilme	-11.3908
ი	-11.3908
▁mecbur	-11.3908
▁isabet	-11.3908
▁koltuk	-11.3908
▁teleskop	-11.3908
▁Bergama	-11.3909
▁nihai	-11.3909
▁Servet	-11.391
▁değiştirerek	-11.391
▁ateşkes	-11.391
▁sürmüş	-11.3914
▁akımın	-11.3915
▁öldürme	-11.3915
▁Bask	-11.3923
▁babasıdır	-11.3925
▁ölçüsü	-11.3926
leştirmek	-11.3927
▁tuğla	-11.3928
▁önerme	-11.3928
▁eklendi	-11.3929
pit	-11.3929
▁belirti	-11.3929
▁olduğunun	-11.393
▁Fred	-11.3931
▁GSYİH	-11.3932
▁ayakkabı	-11.3932
▁dağıtıl	-11.3932
▁Camp	-11.3932
▁detaylı	-11.3932
▁başlatılan	-11.3932
▁Afyon	-11.3932
▁Ligue	-11.3934
▁Street	-11.3935
▁birbiriyle	-11.3936
▁kaliteli	-11.3936
atus	-11.3938
▁rakipleri	-11.3939
▁hâl	-11.3941
▁Leo	-11.3943
▁seçer	-11.3944
▁Kü	-11.3944
▁siyaseti	-11.3946
▁ileride	-11.3947
▁Yılı	-11.3949
mizde	-11.3953
▁sembolleri	-11.3953
▁eğitimine	-11.3954
ñ	-11.3954
füzyon	-11.3954
At	-11.3955
▁Metallica	-11.3955
▁soğan	-11.3955
▁Eri	-11.3956
▁taklit	-11.3956
▁format	-11.3957
▁Cennet	-11.3958
▁sığır	-11.396
lıkla	-11.3962
▁açılır	-11.3962
▁Organ	-11.3962
▁anlamak	-11.3964
▁çoğunun	-11.3967
İran	-11.3969
▁Thor	-11.3971
▁stadyumlar	-11.3977
▁Sub	-11.3977
▁Kütüphane	-11.3978
üç	-11.3978
▁Corporation	-11.3978
▁Kırgızistan	-11.3979
▁Arma	-11.3979
▁itaat	-11.3979
▁mitoloji	-11.3981
▁Christopher	-11.3982
▁kararını	-11.3982
▁sözler	-11.3982
▁bağlanan	-11.3983
Öz	-11.3984
gri	-11.3986
▁temsilci	-11.3987
▁göstermesi	-11.3988
▁Bana	-11.399
▁Gelen	-11.399
▁sefere	-11.3991
▁Ajansı	-11.3991
enberg	-11.3992
▁izleri	-11.3992
▁çöküşü	-11.3993
bed	-11.3993
▁merkezlerinden	-11.3993
▁rolüyle	-11.3996
▁toplandı	-11.3996
▁Öğretim	-11.3996
▁olmadığından	-11.3996
:#	-11.3998
▁egemenlik	-11.3998
▁vücudu	-11.4001
▁Alternatif	-11.4002
▁ceviz	-11.4002
▁Review	-11.4003
▁Patrick	-11.4003
▁port	-11.4006
trik	-11.4006
▁koyar	-11.401
▁From	-11.4011
▁Rüya	-11.4011
ische	-11.4012
tika	-11.4012
▁komutanlığı	-11.4012
▁padişahın	-11.4012
▁adlandırma	-11.4015
tâ	-11.4021
▁ormanlık	-11.4021
▁dışarıdan	-11.4022
▁gazetesinin	-11.4024
▁konumda	-11.4025
KP	-11.4025
ی	-11.4026
rab	-11.4026
▁Meyve	-11.4027
pis	-11.4029
▁Kullanım	-11.4033
▁Comp	-11.4036
▁besleme	-11.4037
▁seç	-11.4039
▁Başbakanlık	-11.404
▁görmeye	-11.4041
▁ünlüdür	-11.4041
▁bölünmüş	-11.4042
▁ilkbahar	-11.4042
ock	-11.4043
▁haftasında	-11.4044
col	-11.4046
▁tanımladı	-11.4047
▁tecrübe	-11.4048
lamıştı	-11.4049
▁Tapınak	-11.4049
▁restoran	-11.4049
▁gecikme	-11.4049
▁benzerlik	-11.4049
▁gücüne	-11.405
▁amino	-11.4051
▁kitlesi	-11.4051
zâde	-11.4053
▁tutma	-11.4053
▁düzenlemeler	-11.4053
▁sakinleri	-11.4056
▁yerlerinde	-11.4058
▁Boş	-11.4058
▁Canlı	-11.4059
opo	-11.4061
▁finali	-11.4061
▁kabilesi	-11.4062
lanıyor	-11.4063
▁Tiyatroları	-11.4063
▁uzakta	-11.4064
▁engeller	-11.4065
eth	-11.4065
stat	-11.4066
▁istiyordu	-11.4067
▁foton	-11.4067
▁TL	-11.4068
▁Deneme	-11.4069
▁ordusunda	-11.4069
karyot	-11.4071
▁üstlendiği	-11.4072
▁yaralı	-11.4072
▁Gezi	-11.4073
▁beni	-11.4073
▁Tanzimat	-11.4073
▁motosiklet	-11.4073
▁kazasında	-11.4073
▁içindedir	-11.4076
▁katılarak	-11.4076
▁ayları	-11.4077
▁kurumsal	-11.4078
▁sistemde	-11.4079
▁jeolojik	-11.408
▁yapıda	-11.408
rar	-11.408
▁bulunmak	-11.4081
▁balıkları	-11.4082
▁soluk	-11.4083
▁Age	-11.4083
▁ulaştığı	-11.4084
▁belirtiler	-11.4085
▁Konak	-11.4087
▁DJ	-11.4089
▁evrimi	-11.4091
▁Sanatçısı	-11.4091
▁kütüphanesi	-11.4091
▁gazeteler	-11.4093
part	-11.4093
DF	-11.4094
▁temelleri	-11.4095
▁Fun	-11.4096
sum	-11.4096
▁tehdidi	-11.4097
▁federasyon	-11.4097
▁paketi	-11.4097
▁Burdur	-11.4097
▁hayali	-11.41
▁rektör	-11.41
▁teoloji	-11.4102
Per	-11.4103
▁yapıp	-11.4103
▁durur	-11.4104
▁belediyeler	-11.4105
▁inceler	-11.4106
CI	-11.4107
▁odun	-11.4107
▁malzemeleri	-11.4111
▁hâkimiyeti	-11.4114
▁destekler	-11.4114
▁sentezi	-11.4116
mmer	-11.4118
▁California	-11.412
▁itiraf	-11.412
▁entegre	-11.4121
▁yükselir	-11.4121
▁Hafız	-11.4121
▁edilip	-11.4121
▁kardeşleri	-11.4122
▁takımdan	-11.4122
▁erkeklerin	-11.4123
▁havaya	-11.4124
▁kullanıcılar	-11.4125
▁prensibi	-11.4126
▁leke	-11.413
▁Luis	-11.4131
jin	-11.4132
▁eğit	-11.4135
▁topluluğun	-11.4138
rılması	-11.414
ory	-11.414
▁Aga	-11.4142
▁ulaşmış	-11.4142
▁Sınıfı	-11.4144
▁Derviş	-11.4144
▁pirinç	-11.4144
▁Stalingrad	-11.4145
▁Bilinen	-11.4145
▁Empire	-11.4145
▁sistematik	-11.4145
▁bölgelerine	-11.4145
▁Hüsnü	-11.4145
▁komutasında	-11.4146
▁Dağıstan	-11.4146
▁oluyordu	-11.4146
ATA	-11.415
view	-11.415
sul	-11.4152
▁Moon	-11.4153
▁kullanımını	-11.4155
▁hastaların	-11.4155
▁yapımcıları	-11.4156
▁temelinde	-11.4157
▁ima	-11.4158
▁değişiklikleri	-11.416
▁teknolojileri	-11.4161
▁geliştirdiği	-11.4162
▁geometrik	-11.4162
▁ekmek	-11.4162
▁camiler	-11.4163
▁Gas	-11.4166
▁tedavisinde	-11.4166
▁Musul	-11.4167
yurdu	-11.4167
~	-11.4168
▁Yalova	-11.4168
▁bilimler	-11.4169
▁kasabasında	-11.417
▁şehit	-11.417
Konfederasyonlar	-11.4171
▁Zira	-11.4171
▁Başkent	-11.4172
▁kırdı	-11.4173
▁atılmıştır	-11.4173
Arab	-11.4174
▁gerçeklik	-11.4175
▁mini	-11.4176
seri	-11.4176
▁Hermann	-11.4176
▁yüzeyinde	-11.4177
tius	-11.4178
▁tutulan	-11.4179
▁Leyla	-11.4179
ktır	-11.4181
▁renkte	-11.4183
▁dize	-11.4183
▁sokul	-11.4183
▁Pekin	-11.4183
▁kolaylıkla	-11.4184
▁dergileri	-11.4184
▁Vergi	-11.4184
▁dönemdeki	-11.4186
lanıyordu	-11.4188
▁Bach	-11.4191
▁bahçesi	-11.4192
▁eleştirel	-11.4192
ovo	-11.4193
▁Willow	-11.4193
Mer	-11.4193
▁Gıda	-11.4194
▁sekizinci	-11.4194
▁Koza	-11.4194
ws	-11.4194
▁üretici	-11.4195
nam	-11.4197
▁taşıt	-11.4198
▁doktoru	-11.4199
▁yeniçeri	-11.4199
▁Psikoloji	-11.42
▁açlık	-11.42
▁kitabının	-11.4201
▁dergiler	-11.4202
▁olabilirler	-11.4203
▁antrenör	-11.4204
pik	-11.4205
▁anlat	-11.4206
▁kısmına	-11.4208
▁bekleme	-11.4212
▁Masa	-11.4214
▁katkıları	-11.4215
▁aldığını	-11.4216
▁Juventus	-11.4216
▁Lawrence	-11.4216
▁evler	-11.4218
▁Ör	-11.422
▁Wei	-11.4221
▁tasarlanan	-11.4222
yurt	-11.4223
▁yöne	-11.4223
▁toprağı	-11.4225
LI	-11.4227
▁ateşli	-11.4227
▁çekişme	-11.4228
Güney	-11.423
▁zehirli	-11.4231
▁işlerini	-11.4232
▁Dou	-11.4232
İslam	-11.4233
▁açıktır	-11.4237
▁Test	-11.4237
suzluk	-11.4237
▁Get	-11.4238
▁rekorunu	-11.4239
▁evliliği	-11.424
▁Kiril	-11.424
▁depresyon	-11.424
▁dönük	-11.4241
▁Haliç	-11.4242
▁ölümsüz	-11.4242
▁VIII	-11.4245
▁Diego	-11.4245
▁Bunlara	-11.4245
▁Liberal	-11.4246
via	-11.4247
▁mistik	-11.4247
▁ülkelerden	-11.4247
▁duyan	-11.4249
▁Amiral	-11.425
▁Mini	-11.4251
▁üyelerinden	-11.4255
▁değerini	-11.4255
▁eserlerinden	-11.4258
▁kurulmasına	-11.4258
kçı	-11.426
▁tutulma	-11.4261
▁elektriksel	-11.4261
▁Kavak	-11.4262
▁tasarımcısı	-11.4263
▁kalanı	-11.4263
▁eleştirmenler	-11.4264
eks	-11.4264
▁Miami	-11.4266
▁pasif	-11.4266
gaz	-11.4267
hü	-11.4269
▁âlem	-11.427
▁ticaretin	-11.4274
metrik	-11.4274
▁çoğunluk	-11.4277
rip	-11.4278
▁yakaladı	-11.4278
▁Pink	-11.4279
▁/(	-11.4279
▁resimler	-11.428
▁yerleşimi	-11.4282
▁Oysa	-11.4283
▁tutarlı	-11.4284
▁Prenses	-11.4289
▁Lakers	-11.4289
▁kısıt	-11.4289
▁bahsedil	-11.4291
▁çevreleyen	-11.4291
oidea	-11.4294
▁nar	-11.4294
▁cephesi	-11.4296
▁Heyeti	-11.4296
▁davranışı	-11.4296
▁Johannes	-11.4296
▁hamur	-11.4301
▁kemeri	-11.4303
▁üretme	-11.4306
▁dedesi	-11.4308
▁delta	-11.4309
▁bulmuş	-11.4309
▁üstünlüğü	-11.431
▁manevra	-11.4313
▁tarama	-11.4313
▁Zeynep	-11.4313
▁rolünde	-11.4314
▁Kala	-11.4315
▁Hititler	-11.4319
▁Ural	-11.4319
▁molekül	-11.4322
oph	-11.4323
▁fiili	-11.4324
▁Bayern	-11.4326
ος	-11.4327
beyli	-11.4331
▁oturma	-11.4332
▁tiyatrosu	-11.4332
▁Karakter	-11.4333
ress	-11.4334
▁bağlanması	-11.4334
▁Pic	-11.4336
▁Olayı	-11.4337
▁Herhangi	-11.4337
▁Muhafız	-11.4337
▁dokuzuncu	-11.4338
▁Musevi	-11.4338
▁geliyor	-11.4339
İn	-11.4342
▁vektör	-11.4344
▁büyücü	-11.4344
▁Dükü	-11.4344
▁Venüs	-11.4345
▁izole	-11.4346
▁sub	-11.4351
▁anında	-11.4351
media	-11.4353
ár	-11.4356
▁dosyaları	-11.4359
Gu	-11.4361
▁Şer	-11.4361
▁Zürih	-11.4362
▁Kamerun	-11.4362
▁belirtilir	-11.4362
▁kemiği	-11.4362
▁belirtmektedir	-11.4362
▁Ebû	-11.4362
▁Bingöl	-11.4362
▁Bugünkü	-11.4363
▁tarihlerinde	-11.4364
▁Kuruluşu	-11.4365
▁addır	-11.4366
▁Nas	-11.4366
▁çene	-11.4369
▁paylaş	-11.437
▁kalk	-11.4371
▁irade	-11.4372
▁faydalı	-11.4372
▁Grek	-11.4373
▁kurmaya	-11.4373
▁gönderir	-11.4374
▁çamur	-11.4379
▁Seni	-11.438
▁uzaktan	-11.4381
▁okulları	-11.4381
▁Batum	-11.4382
▁Indiana	-11.4382
gli	-11.4382
▁Kelebek	-11.4386
▁binanın	-11.4387
▁End	-11.4387
▁akçe	-11.4387
▁ulaşımı	-11.4387
ries	-11.4388
▁Ernest	-11.4389
▁katılmaya	-11.4389
aktif	-11.439
▁lehçe	-11.4391
▁görülmeye	-11.4392
cs	-11.4392
▁kazanç	-11.4396
▁Fırkası	-11.4397
▁İşlem	-11.4397
▁enzim	-11.4397
▁oğlunun	-11.4399
list	-11.4399
▁ilki	-11.44
▁sars	-11.44
▁Ross	-11.4402
AB	-11.4403
▁Tahta	-11.4404
▁Bronz	-11.4406
▁üretil	-11.4407
▁Direktör	-11.4407
▁emretti	-11.4407
▁gövdesi	-11.4408
oko	-11.441
▁restore	-11.4411
▁havaalanı	-11.4411
ín	-11.4411
▁filtre	-11.4412
▁siteleri	-11.4412
▁varlıklar	-11.4413
▁Karma	-11.4414
▁Iron	-11.4415
▁olasılık	-11.4415
▁çete	-11.4416
▁akımının	-11.4423
▁markaları	-11.4424
▁kolon	-11.4426
MG	-11.4426
▁Kule	-11.4427
▁Kh	-11.4428
▁binaları	-11.4428
▁dinin	-11.4429
▁belirtileri	-11.4431
▁kanlı	-11.4431
alt	-11.4432
▁zihin	-11.4433
rasyon	-11.4434
▁Kürdistan	-11.4435
ق	-11.4435
▁canavar	-11.4435
▁kaldılar	-11.4436
▁Fakülte	-11.4436
▁plaj	-11.4436
▁büyüklükte	-11.4437
▁paylaştı	-11.4437
▁forvet	-11.4437
leştirir	-11.4439
▁şarkıyı	-11.4441
▁Şeh	-11.4442
▁Ölü	-11.4442
olarak	-11.4443
▁şehirlerde	-11.4447
▁görüntüler	-11.4447
▁tutumu	-11.445
▁uzaklık	-11.4451
}	-11.4452
▁mektubu	-11.4454
reg	-11.4455
ülasyon	-11.4455
▁tasar	-11.4455
▁basketbolcular	-11.4458
leştirdi	-11.4458
▁okullarda	-11.4459
▁Pamuk	-11.446
▁köşk	-11.446
▁fikirler	-11.4461
▁çağrıldı	-11.4462
▁Nihat	-11.4463
▁Olay	-11.4464
▁ediliyor	-11.4466
lock	-11.4467
▁Apollon	-11.447
▁Turk	-11.447
▁Hazır	-11.447
▁Osmaniye	-11.4471
pala	-11.4472
▁kararla	-11.4473
▁aza	-11.4473
çek	-11.4474
onlar	-11.4475
▁Stu	-11.4483
▁kireç	-11.4484
▁doğrusal	-11.4485
▁Görüntü	-11.4485
▁sipariş	-11.4485
▁Emniyet	-11.4485
▁Otomobil	-11.4485
▁İr	-11.4485
▁Cahit	-11.4486
▁düzenine	-11.4486
▁dolgu	-11.4486
▁Institute	-11.4486
▁üstünlük	-11.4488
illo	-11.4488
ucci	-11.449
▁Road	-11.4491
▁Rumlar	-11.4492
cuk	-11.4493
▁düşün	-11.4493
rian	-11.4493
shire	-11.4497
▁hukuki	-11.4502
▁katılımı	-11.4505
▁genişliğinde	-11.4505
▁yerinden	-11.4507
▁Wolf	-11.4507
▁Çık	-11.4507
poz	-11.4508
▁Moldova	-11.4509
▁soykırım	-11.4509
▁Çavuş	-11.4509
▁geyik	-11.4509
▁Oy	-11.451
▁türetilmiştir	-11.4511
▁MHP	-11.4511
▁drama	-11.4513
▁Şiirleri	-11.4513
▁taşınmıştır	-11.4514
▁Köken	-11.4514
▁kulesi	-11.4515
▁Sis	-11.4516
Par	-11.4517
▁Turhan	-11.4518
▁Cen	-11.452
▁Cl	-11.4522
▁santral	-11.4524
▁kaymakam	-11.4525
▁değerlendirilme	-11.4526
▁oturan	-11.4529
hic	-11.4529
hun	-11.4529
▁enerjinin	-11.4534
▁Iğdır	-11.4534
▁Teksas	-11.4534
▁Çeviri	-11.4534
▁vakit	-11.4534
▁gözaltın	-11.4536
▁Öztürk	-11.4536
▁Abdul	-11.4536
▁durumları	-11.4536
ofil	-11.4539
▁artırmak	-11.4539
▁geçirilen	-11.454
▁Gene	-11.4545
ь	-11.4546
mé	-11.4548
▁Antlaşma	-11.4551
kine	-11.4552
▁Book	-11.4553
▁sanal	-11.4558
ί	-11.4559
▁dağıtımı	-11.4559
▁kentine	-11.4559
▁fıkra	-11.4559
▁övgü	-11.4559
Kor	-11.456
ult	-11.456
▁kuşları	-11.4561
kab	-11.4562
▁yazarlığı	-11.4563
diye	-11.4564
▁faiz	-11.4565
cre	-11.4566
▁etmesiyle	-11.4567
▁Akarsu	-11.4567
▁kenarı	-11.4567
masından	-11.4569
▁yüzme	-11.457
▁gelişmekte	-11.4571
gâh	-11.4571
▁Yazılım	-11.4571
▁yitirdi	-11.4572
▁Luke	-11.4572
▁Net	-11.4574
▁Tekin	-11.4574
▁Sala	-11.4576
▁tabur	-11.4576
▁bölme	-11.4579
▁patent	-11.458
HT	-11.458
▁erit	-11.4582
▁Özdemir	-11.4583
▁Language	-11.4584
▁Tekirdağ	-11.4584
▁Vücut	-11.4584
cover	-11.4584
keş	-11.4584
ase	-11.4585
▁Eflak	-11.4585
▁Genetik	-11.4585
▁Albümleri	-11.4586
▁Refik	-11.4588
▁Yas	-11.4588
ttiği	-11.4589
▁olamaz	-11.4589
▁kökü	-11.4589
▁keşfedildi	-11.459
▁maçlarında	-11.4591
ulus	-11.4591
lıyordu	-11.4593
▁kanatlı	-11.4593
mol	-11.4595
lb	-11.4599
▁hayır	-11.46
▁dolarlık	-11.46
▁gerçeği	-11.46
Em	-11.4601
▁yapraklı	-11.4601
▁hikâyeler	-11.4602
▁memnun	-11.4603
▁Saldırı	-11.4606
▁Kör	-11.4608
▁Bayburt	-11.4609
▁Humboldt	-11.4609
▁Malazgirt	-11.4609
▁Zincirlikuyu	-11.4609
▁efekt	-11.4609
▁radyoaktif	-11.461
▁algılama	-11.461
▁Bafra	-11.4611
▁hakimiyet	-11.4611
▁Hastalık	-11.4612
▁Kozan	-11.4612
OL	-11.4612
▁Sco	-11.4613
▁planlanan	-11.4613
▁Gökhan	-11.4615
▁korur	-11.4617
▁imal	-11.462
▁galibiyeti	-11.4626
ides	-11.4626
▁Mek	-11.4626
▁gitmiş	-11.463
CS	-11.463
ics	-11.4632
▁Araba	-11.4634
▁Elbistan	-11.4634
▁sünnet	-11.4634
zil	-11.4634
▁bel	-11.4635
büs	-11.4638
▁Sözleşmesi	-11.4638
▁pp	-11.4638
▁köklü	-11.4639
▁alabilir	-11.4639
▁edilemez	-11.464
statik	-11.464
otu	-11.4642
fes	-11.4643
▁Biyografi	-11.4647
▁balıkçılık	-11.4648
▁dünyasına	-11.4648
▁eyaletleri	-11.4651
▁inanma	-11.4653
▁mutlaka	-11.4654
düzenlenmektedir	-11.4655
▁tırman	-11.4656
▁Š	-11.4657
▁silahları	-11.4658
adam	-11.4659
η	-11.4659
▁çabuk	-11.4659
▁olamadı	-11.4659
▁kalmak	-11.466
▁anlaşmaya	-11.466
▁tanımlayan	-11.4661
▁Başkanlık	-11.4662
▁Ayı	-11.4665
hanesi	-11.4666
▁çağır	-11.4667
▁Asi	-11.4669
gia	-11.467
▁etkilerini	-11.4672
▁rehber	-11.4673
▁Hattı	-11.4676
▁bırakılması	-11.4678
▁getirilir	-11.468
▁kendinden	-11.4681
▁olasılıkla	-11.4682
▁ailelerin	-11.4683
▁Roosevelt	-11.4684
▁çapraz	-11.4684
▁Danışma	-11.4684
▁Çakır	-11.4685
▁Gündüz	-11.4685
▁First	-11.4685
▁Sivil	-11.4685
▁öncüsü	-11.4686
▁duygusu	-11.4686
Kan	-11.4689
▁dönemindeki	-11.4691
▁buçuk	-11.4692
▁faaliyetlerine	-11.4695
▁Dünyası	-11.4695
▁Fort	-11.47
▁Set	-11.47
▁Abi	-11.47
laştı	-11.4705
▁arda	-11.4706
hara	-11.4708
▁çevirme	-11.4708
▁Tes	-11.4708
▁Alabama	-11.471
▁Kızılırmak	-11.471
▁Mevcut	-11.471
▁heyecan	-11.471
▁çıkıntı	-11.471
apa	-11.471
▁Salvia	-11.471
▁cisimler	-11.4711
▁Lucas	-11.4712
flor	-11.4712
▁yasağı	-11.4712
▁gerçekte	-11.4712
▁Franco	-11.4713
▁Baz	-11.4714
▁kolaylaştır	-11.4715
▁Eskiden	-11.4715
▁orduya	-11.4716
▁fiil	-11.4716
AH	-11.4718
▁Yapım	-11.4718
▁sürecek	-11.4718
erken	-11.4719
▁Özkan	-11.472
▁saygın	-11.472
▁yapılmasını	-11.4721
▁kelimenin	-11.4721
▁aralığında	-11.4722
▁Müdür	-11.4724
▁Nah	-11.4724
etler	-11.4727
aki	-11.4727
▁çevrildi	-11.4728
▁İstasyonu	-11.4729
▁Kitab	-11.4731
▁sırası	-11.4731
▁kazandırdı	-11.4732
dâ	-11.4733
▁süreyle	-11.4735
rık	-11.4736
▁eyaletin	-11.4736
▁Hilmi	-11.4737
▁Davis	-11.4737
laştırdı	-11.4738
▁türemiştir	-11.4738
▁üretiminin	-11.4738
▁Kurban	-11.4741
▁Josef	-11.4741
▁ekleme	-11.4744
▁manzara	-11.4745
kışla	-11.4745
▁ayrıldıktan	-11.4746
▁mirası	-11.4746
▁kayıpları	-11.4748
▁Vah	-11.475
▁emin	-11.4753
stad	-11.4753
▁Rosa	-11.4754
▁Off	-11.4754
▁kusur	-11.4755
▁aklın	-11.4756
▁dillerde	-11.4757
▁bıraktığı	-11.4758
▁geçerken	-11.4759
tiğin	-11.476
▁verirler	-11.476
▁Beyazıt	-11.4761
▁infaz	-11.4761
▁Lor	-11.4763
lanmıştı	-11.4765
▁akademisyenler	-11.4769
▁sorumludur	-11.477
pap	-11.4772
▁dayanma	-11.4773
▁yazması	-11.4774
▁planlama	-11.4774
▁tanrıçaları	-11.4775
▁sunan	-11.4776
rub	-11.4779
▁dağların	-11.478
▁Aç	-11.4781
▁görülmesi	-11.4782
amayacağı	-11.4782
▁oyunculuk	-11.4782
▁maçlarda	-11.4783
Wan	-11.4785
▁duyuru	-11.4785
▁oluşması	-11.4785
▁uğrayan	-11.4786
▁âşık	-11.4786
▁çapta	-11.4786
▁Little	-11.4786
▁Stefan	-11.4786
▁eylemler	-11.4787
lenecek	-11.4789
▁bilgiye	-11.4789
▁geliştirmiştir	-11.4789
▁ülkelerinin	-11.479
▁programını	-11.4791
▁halifesi	-11.4793
▁ülkesine	-11.4796
▁oluşturul	-11.4798
▁Özbek	-11.4799
▁demek	-11.4805
▁Slovenya	-11.4806
▁turunda	-11.4808
▁değiştirilmiş	-11.4809
osfer	-11.4811
▁Amsterdam	-11.4811
▁Sonrasında	-11.4811
lendirilmesi	-11.4811
▁destekli	-11.4813
▁sevgilisi	-11.4814
▁ekipman	-11.4814
Orta	-11.4815
▁Sancak	-11.4816
Bas	-11.4817
▁pist	-11.4818
▁hatıra	-11.4819
▁fiilen	-11.4819
▁Basra	-11.4821
▁transferi	-11.4824
▁hücreli	-11.4825
▁Sür	-11.4827
▁teoremi	-11.4828
▁harfler	-11.4831
▁pen	-11.4833
▁örnektir	-11.4834
▁bastır	-11.4834
oğlan	-11.4837
▁Wikipedia	-11.4837
▁Petersburg	-11.4837
CE	-11.4837
▁Arena	-11.4837
▁Dağlar	-11.4838
▁borsa	-11.4838
yapı	-11.4838
▁hayatın	-11.4839
▁Kid	-11.484
▁kararları	-11.4841
▁Ziraat	-11.4841
▁tuzlu	-11.4842
▁Müzikal	-11.4842
▁sınavı	-11.4845
▁Şef	-11.4846
▁döngüsü	-11.4846
▁Ami	-11.4847
▁kötülük	-11.4847
▁delil	-11.4849
▁anki	-11.485
én	-11.485
▁geçerlidir	-11.485
▁Way	-11.4854
▁filme	-11.4854
▁Disk	-11.4854
▁adlandırıldı	-11.4855
▁yaptıktan	-11.4859
▁sahada	-11.4861
▁Nijerya	-11.4862
▁Beylerbeyi	-11.4862
▁inanılan	-11.4863
▁anılmaya	-11.4863
▁kabileleri	-11.4864
▁HIV	-11.4864
▁mutasyon	-11.4865
▁yönetme	-11.4866
▁oyma	-11.4867
stin	-11.4867
▁görmektedir	-11.4868
▁vokalist	-11.487
▁etkilenme	-11.487
diya	-11.487
▁Adını	-11.4871
▁havacılık	-11.4873
▁isimlerinden	-11.4873
▁gerekiyordu	-11.4874
▁Safa	-11.4874
mize	-11.4874
▁istek	-11.4874
▁Görüş	-11.4876
▁vermeyi	-11.4876
▁komite	-11.4878
▁uzaya	-11.4878
▁çeşitlilik	-11.4879
ст	-11.4882
▁toplanması	-11.4882
▁Dik	-11.4882
▁Gibi	-11.4885
▁hareketini	-11.4885
▁Georges	-11.4885
▁düşmüş	-11.4886
▁Başta	-11.4887
rot	-11.4888
ă	-11.4888
▁Entertainment	-11.4888
▁Safranbolu	-11.4888
▁Çaycuma	-11.4888
▁Marshall	-11.4888
▁gayri	-11.4888
▁İskandinav	-11.4889
▁ilhak	-11.4892
▁elektrikli	-11.49
▁Kla	-11.4901
▁heyet	-11.4902
▁Duru	-11.4902
toryum	-11.4904
▁balina	-11.4906
kır	-11.4908
▁müdahalesi	-11.4909
▁hücrelerinin	-11.4913
▁İmranlı	-11.4914
▁kullanıl	-11.4914
▁sürdürülebilir	-11.4914
▁sit	-11.4916
▁Hazine	-11.4917
▁çoğunluğunu	-11.4917
▁limit	-11.492
sün	-11.4921
▁komisyon	-11.4922
▁evlat	-11.4922
çal	-11.4923
▁karikatür	-11.4924
▁ihtiyacını	-11.4924
▁yorumcu	-11.4926
roman	-11.4928
▁Kraliçesi	-11.4929
▁tanıdı	-11.4931
▁sanık	-11.4932
▁duru	-11.4933
▁dediği	-11.4934
▁Gil	-11.4934
▁aileler	-11.4936
▁ölmüş	-11.4938
ılacak	-11.4938
ologlar	-11.4939
▁Hacettepe	-11.494
ع	-11.494
▁bataklık	-11.494
▁şehzade	-11.494
▁almasını	-11.4941
▁Boşnak	-11.4942
▁dönemden	-11.4944
▁dahilinde	-11.4945
▁kadınlara	-11.4946
▁Great	-11.4946
▁Ton	-11.4947
▁Düzen	-11.4948
▁Ner	-11.4948
▁sezonunu	-11.4949
ful	-11.4949
▁birincisi	-11.4951
▁patlaması	-11.4952
▁formasıyla	-11.4954
TM	-11.4955
▁yetmezliği	-11.496
▁kıyısındaki	-11.4961
▁öneme	-11.4963
▁fenomen	-11.4963
▁kaybeder	-11.4964
▁trafiği	-11.4965
RE	-11.4965
▁estetik	-11.4966
▁tribün	-11.4966
▁Sorgun	-11.4966
▁sayısına	-11.4966
▁sera	-11.4966
▁sunmaktadır	-11.4966
▁düzenleyen	-11.4967
▁Wild	-11.4967
▁Tasavvuf	-11.4967
▁gereğince	-11.4968
▁etkilemiştir	-11.4969
▁Düzenleme	-11.497
▁kendiliğinden	-11.4971
üyor	-11.4972
▁türe	-11.4974
▁kanalında	-11.4976
▁ilişkilidir	-11.4977
▁Nec	-11.4978
▁metinler	-11.4978
▁Kenya	-11.4978
▁dallarında	-11.4979
Tİ	-11.498
▁Tara	-11.498
▁monte	-11.498
▁Ez	-11.4981
Th	-11.4983
▁arabası	-11.4983
lemektedir	-11.4984
dikten	-11.4985
▁tümen	-11.4986
este	-11.4987
▁çoğunda	-11.4988
▁görevlerini	-11.4989
▁adlandır	-11.4989
▁Muharebe	-11.499
▁jüri	-11.4992
▁Museum	-11.4992
▁kaygı	-11.4992
▁Refah	-11.4993
▁dilini	-11.4993
▁elindeki	-11.4994
▁Profili	-11.4994
▁önlemler	-11.4995
bs	-11.4995
▁Kevin	-11.4995
▁Haz	-11.4997
▁komünizm	-11.4998
fol	-11.5
▁Maxim	-11.5
▁rahatsızlık	-11.5002
▁deve	-11.5002
▁yükselişi	-11.5003
▁gezegenler	-11.5004
▁atama	-11.5005
▁yanındaki	-11.5005
ekli	-11.5005
▁Pha	-11.5008
▁bekle	-11.5008
Es	-11.501
▁yakalandı	-11.5013
kulu	-11.5016
▁cehennem	-11.5018
▁Şanghay	-11.5018
▁problemler	-11.5019
mbi	-11.5021
rez	-11.5021
▁taşımacılığı	-11.5021
▁Kırk	-11.5024
▁yürütülen	-11.5024
▁Foto	-11.5026
▁sound	-11.5026
▁kalkış	-11.5026
▁serin	-11.5029
▁sadrazamlık	-11.5031
▁çözme	-11.5032
▁kupayı	-11.5034
larındandır	-11.5034
▁bağlanmış	-11.5036
▁Hız	-11.5036
▁Taşı	-11.5038
▁Ari	-11.5039
▁yenilgisi	-11.504
ders	-11.5041
▁prodüktör	-11.5043
üddin	-11.5044
▁Jane	-11.5044
▁kiliseler	-11.5045
▁yaratan	-11.5045
▁gelişimini	-11.5045
▁Ortadoğu	-11.5047
▁Liste	-11.5047
▁Kuzeybatı	-11.5047
▁yatağı	-11.5048
▁canlıların	-11.5048
▁bombası	-11.505
▁kralın	-11.505
telli	-11.5051
elektrik	-11.5052
▁Evli	-11.5054
▁onarım	-11.5054
CR	-11.5055
▁Home	-11.5056
▁çoğul	-11.5057
kap	-11.5058
▁Korkut	-11.5058
▁More	-11.5059
▁albümüdür	-11.5059
▁Buradaki	-11.506
▁Ortaokulu	-11.5061
▁dalıdır	-11.5062
lıkta	-11.5063
▁Mem	-11.5064
▁Hanedanlığı	-11.5066
▁kuşku	-11.5066
▁seviyesinde	-11.5066
aq	-11.5068
▁Reform	-11.5068
▁üretti	-11.5069
▁Voldemort	-11.507
Vestfalya	-11.507
▁Digimon	-11.507
▁erozyon	-11.507
▁Mescid	-11.507
▁yenilerek	-11.5071
▁Kasaba	-11.5072
▁bilgilerin	-11.5075
▁Kadro	-11.5075
enko	-11.5076
arım	-11.5076
▁asidi	-11.5077
▁pazarlama	-11.5081
▁türbin	-11.5081
▁istekleri	-11.5081
▁uğradığı	-11.5082
▁takımyıldızı	-11.5087
▁tabiat	-11.5088
▁Free	-11.5089
▁Law	-11.5089
▁psiko	-11.509
▁çekimi	-11.509
▁ihlal	-11.5091
laştırılmış	-11.5092
▁Kitaplar	-11.5093
▁liderler	-11.5093
▁çevreler	-11.5095
ß	-11.5096
▁paralar	-11.5096
β	-11.5096
▁Şevket	-11.5096
▁öğle	-11.5096
▁mühimmat	-11.5096
▁doldurul	-11.5097
▁barajlar	-11.5097
▁varlığına	-11.5098
▁başlanmış	-11.5099
▁yürü	-11.5099
▁Seyhan	-11.5099
rina	-11.51
▁Bala	-11.5102
owski	-11.5103
▁Emek	-11.5106
▁göstermeye	-11.5106
▁müzikleri	-11.5107
▁sunma	-11.511
▁Kedi	-11.511
▁tarıma	-11.5113
▁geminin	-11.5114
house	-11.5114
DO	-11.5115
awa	-11.5116
▁çıkacak	-11.5116
▁görüşmeleri	-11.5117
▁Tez	-11.5118
▁Ass	-11.5119
glu	-11.5119
abilmiştir	-11.512
▁birleşmesi	-11.5121
sberg	-11.5122
▁toplanır	-11.5122
▁harcama	-11.5122
▁tasarımcı	-11.5123
▁Galiçya	-11.5123
▁Piyano	-11.5123
▁Ardahan	-11.5123
ılmaz	-11.5123
▁senatör	-11.5123
▁sürdürmüştür	-11.5123
▁emisyon	-11.5124
▁yükleme	-11.5124
▁Kos	-11.5124
▁kondansatör	-11.5125
▁Akka	-11.5126
▁aktarma	-11.5127
▁Gösteri	-11.5127
XX	-11.5128
▁Hera	-11.5129
▁eklenmiştir	-11.5129
▁muhtemel	-11.5129
▁Hur	-11.5129
▁Filip	-11.513
act	-11.5132
fiye	-11.5133
▁işlevleri	-11.5136
▁kanama	-11.514
▁Ayaklanması	-11.5141
▁fren	-11.5142
▁çatısı	-11.5144
▁Avni	-11.5148
▁eleştirmenleri	-11.5148
▁topla	-11.5148
▁sark	-11.5149
▁dikdörtgen	-11.5149
▁kulübe	-11.5149
▁Boeing	-11.5149
▁Efsane	-11.5149
▁rastgele	-11.5149
▁idaresinde	-11.5149
▁Isı	-11.515
▁Hizmetleri	-11.5152
▁gösterge	-11.5152
▁eyaletinden	-11.5153
▁çeviren	-11.5153
▁kom	-11.5153
▁eğri	-11.5154
▁paylaşıl	-11.5155
▁bitiren	-11.5155
▁şirketinin	-11.5156
▁Anıtı	-11.5157
▁sahibidir	-11.5157
mızı	-11.5158
güney	-11.5158
yama	-11.5159
▁ruhun	-11.5165
▁türünde	-11.5165
▁seçenek	-11.5166
Ab	-11.5166
▁refah	-11.5169
▁böcekler	-11.5172
▁örgütün	-11.5173
▁fethedil	-11.5173
▁Tol	-11.5175
ekler	-11.5175
▁Margaret	-11.5175
▁kısaltması	-11.5176
▁bestecisi	-11.5177
▁kuvvetin	-11.5179
▁tayf	-11.518
▁eleştirmeni	-11.518
▁karakterize	-11.5181
▁Gücü	-11.5181
▁Radyosu	-11.5182
▁Düzce	-11.5182
▁metodu	-11.5182
▁görünüş	-11.5183
▁Katar	-11.5185
▁sarayın	-11.5186
▁İlin	-11.5188
try	-11.5188
▁Japonca	-11.5191
▁bölümlerinde	-11.5193
Com	-11.5196
We	-11.5196
▁Form	-11.5196
fî	-11.5197
dum	-11.5201
▁Saz	-11.5201
Ğ	-11.5202
▁Arizona	-11.5202
▁Mozart	-11.5202
▁Oliver	-11.5202
▁Zırhlı	-11.5202
▁Seçme	-11.5202
▁Alfa	-11.5203
▁Golden	-11.5203
▁yönleri	-11.5203
▁ikmal	-11.5203
ø	-11.5203
▁anılmaktadır	-11.5204
▁girip	-11.5205
▁korun	-11.5205
▁havuz	-11.5209
▁yaşından	-11.521
iva	-11.5214
▁Mid	-11.5218
ettiği	-11.5221
AŞ	-11.5222
▁protokolü	-11.5223
▁yöresi	-11.5225
▁kapatılması	-11.5225
iyesi	-11.5227
Baş	-11.5227
▁Burhan	-11.5227
SV	-11.5228
▁Mesela	-11.5229
rent	-11.523
▁Nasıl	-11.523
▁Çocukluğu	-11.5231
cca	-11.5231
▁nef	-11.5233
▁Kargı	-11.5233
hra	-11.5234
▁güzellik	-11.5234
▁fiyatları	-11.5234
som	-11.5235
tılmış	-11.5235
▁açıklamalar	-11.5237
▁mezarlığı	-11.5238
▁kimsenin	-11.5239
▁taze	-11.524
▁Kurul	-11.5243
▁İttifak	-11.5243
▁Asa	-11.5244
▁Esas	-11.5244
▁doğar	-11.5245
▁İslamiyet	-11.5247
▁Sıcak	-11.5247
zur	-11.5247
▁örgütlenme	-11.5248
▁Deri	-11.525
▁bileşeni	-11.525
▁Aşkın	-11.5251
▁kıyafet	-11.5251
▁Magic	-11.5252
▁Geçmiş	-11.5254
aux	-11.5254
▁Cumhuriyetin	-11.5255
▁havalimanı	-11.5255
▁nöbet	-11.5255
▁maske	-11.5256
▁editör	-11.5256
▁çalıştırıl	-11.5257
▁Sarıkaya	-11.5257
▁söylenmektedir	-11.5257
▁kısmi	-11.5257
Fransa	-11.526
▁evrimsel	-11.5262
▁С	-11.5263
▁Gelin	-11.5265
▁Manastırı	-11.5265
▁Şehit	-11.5265
▁yaptırdığı	-11.5266
▁inç	-11.5267
▁güneyindeki	-11.5267
▁maliyet	-11.5268
▁yarımada	-11.5269
▁sembolik	-11.5271
▁Claude	-11.5272
▁üçü	-11.5273
▁bitkileri	-11.5275
▁yürüme	-11.5275
▁doğada	-11.5276
▁bulunurlar	-11.5276
▁şifreleme	-11.5277
▁bulgu	-11.5277
viz	-11.5277
Roma	-11.5278
▁röportajda	-11.5281
▁Mercedes	-11.5282
▁vakti	-11.5282
▁büyüklük	-11.5284
▁çekimleri	-11.5284
Wh	-11.5284
▁dostluk	-11.5284
▁Anderson	-11.5284
▁Phil	-11.5284
▁ofis	-11.5285
▁sevilen	-11.5285
▁Space	-11.5286
▁geldiler	-11.5287
▁Gram	-11.5289
▁tüy	-11.529
▁Hidro	-11.5292
▁müzisyeni	-11.5292
▁memuru	-11.5292
▁yerleşmesi	-11.5293
▁Avar	-11.5293
▁akla	-11.5293
Ah	-11.5295
▁yargılama	-11.5297
▁arayışı	-11.5298
Kal	-11.5299
▁uçları	-11.5301
▁dönüşümü	-11.5304
opi	-11.5305
▁görevler	-11.5305
▁evleri	-11.5308
▁Rüzgâr	-11.5309
té	-11.5309
▁metafizik	-11.5309
▁asi	-11.5309
▁Dubai	-11.5309
▁Fatsa	-11.5309
▁Helenistik	-11.5309
▁marş	-11.5309
▁Pınarbaşı	-11.531
▁matris	-11.531
▁işgaline	-11.531
▁Sahra	-11.531
▁Baraj	-11.5312
▁milyonlarca	-11.5313
▁Örümcek	-11.5313
▁Kiev	-11.5314
▁ağları	-11.5314
Bel	-11.5314
▁sürümleri	-11.5314
Car	-11.5314
▁Günlük	-11.5314
namesi	-11.5315
▁yaşat	-11.5316
gerçek	-11.5319
▁değişmesi	-11.5319
llus	-11.5319
▁kadrosuna	-11.532
▁İslamcı	-11.5322
▁yasaklandı	-11.5322
▁ilerledi	-11.5322
▁kazılar	-11.5322
kah	-11.5323
▁motorları	-11.5323
▁Özgün	-11.5325
▁dayandığı	-11.5326
▁başlattığı	-11.5326
▁Yorum	-11.5326
▁kökenleri	-11.5327
▁geleceği	-11.5327
▁Lider	-11.5328
▁davranışlar	-11.5328
▁Kalan	-11.5328
▁konumunu	-11.533
▁Yahudilik	-11.533
▁görüntüleri	-11.5331
▁gömülü	-11.5332
▁uğraşan	-11.5332
▁parçacıkların	-11.5332
▁üyelik	-11.5332
▁korudu	-11.5333
▁Cephe	-11.5335
▁karaya	-11.5335
▁Kolordusu	-11.5335
rm	-11.5336
▁öğüt	-11.5336
▁Saddam	-11.5336
▁Tayyip	-11.5336
▁tüketici	-11.5336
▁parametre	-11.5338
▁prim	-11.5338
▁içerisine	-11.5338
▁lamba	-11.5338
îler	-11.5339
▁Back	-11.5342
▁lira	-11.5342
▁kayalık	-11.5343
▁kavramını	-11.5345
▁Jay	-11.5345
▁Eb	-11.5347
▁Kaç	-11.5348
▁öğretmenliği	-11.5349
▁bölgesini	-11.5349
▁Media	-11.5349
▁Abhazya	-11.5351
▁askerlerinin	-11.5351
▁sertifika	-11.5353
▁diren	-11.5353
▁sistemlerinin	-11.5353
rick	-11.5353
▁kalenin	-11.5355
▁harekâtı	-11.5356
▁†	-11.536
▁bilin	-11.5361
▁papaz	-11.5362
▁suçlar	-11.5362
▁Akdağmadeni	-11.5363
▁uyarlaması	-11.5363
▁Reşit	-11.5364
▁kılıcı	-11.5364
▁kültürde	-11.5364
▁yangı	-11.5367
▁sular	-11.5367
kurt	-11.5367
▁Vel	-11.537
Wa	-11.5371
▁yükümlü	-11.5371
▁sistemidir	-11.5371
▁prensi	-11.5372
▁Çev	-11.5372
kav	-11.5373
▁yöresinde	-11.5374
▁alanını	-11.5375
stre	-11.5375
▁Reg	-11.5379
▁yapmakta	-11.538
▁Filmi	-11.5383
▁başladığında	-11.5386
▁hareketle	-11.5386
▁Dead	-11.5388
▁formları	-11.5388
▁mezarlık	-11.539
▁imtiyaz	-11.539
▁Havaalanı	-11.539
▁Astronomi	-11.5391
▁Dom	-11.5391
▁Aka	-11.5392
▁güçlerini	-11.5394
DL	-11.5394
▁Yaylası	-11.5396
▁Belediyespor	-11.5398
▁akademi	-11.5399
▁düşünen	-11.54
▁Uz	-11.54
▁erkeklerde	-11.5401
âd	-11.5401
▁Nüfusun	-11.5402
▁problemleri	-11.5403
osa	-11.5404
▁Serisi	-11.5406
▁kuvvetlerini	-11.5406
[...]
